#version: 0.2
t h
i n
a n
t i
e n
th e</w>
e r
o n
r e
an d</w>
a r
in g</w>
o f</w>
t e
o r
r o
e s
o n</w>
t o</w>
a ti
i c
s t
a l</w>
i t
a l
i n</w>
e s</w>
a t
a c
c o
l o
e d</w>
e c
s i
p ro
m en
u r
i s</w>
c h
d e
o r</w>
p l
a t</w>
d i
T h
u n
l i
a n</w>
s u
s e
r i
n o
a s</w>
ati on
ati on</w>
s ,</w>
c on
v e
r a
u l
a b
v i
th e
c i
i l
l e
v e</w>
co m
e x
t s</w>
u s
m a
科 技
th at</w>
f or</w>
ti on
p o
t er
c e</w>
a s
Th e</w>
v er
e l
s .</w>
d u
w h
i m
p er
o u
可 以
l y</w>
技 术
d ing</w>
o l
lo g
m e
研 究
g h
en ti
f or
c h</w>
s p
a p
men t</w>
n e
ar e</w>
b e
f i
' s</w>
h i
l e</w>
q u
h o
m o
te d</w>
t r
it y</w>
f f
te ch
a g
at e</w>
ti on</w>
b y</w>
no log
a d
st r
in g
ti c
men t
y ,</w>
se ar
m i
c e
en t</w>
tech nolog
re sear
it h</w>
s o
y s
es ,</w>
n i
c an</w>
w ith</w>
ve lo
p re
h a
e n</w>
in c
l u
数 据
d er
de velo
t u
for m
a m
i t</w>
s ci
ic al</w>
d e</w>
e r</w>
develo p
b e</w>
t ing</w>
Th is</w>
er s</w>
c es
i z
ation s</w>
f ic
p ar
en ce</w>
du c
ho w</w>
ur e</w>
con t
通 过
es e</w>
b u
t w
发 展
p or
ul d</w>
ys te
it s</w>
f ro
te r</w>
i s
com p
or e</w>
fro m</w>
s yste
m ar
u m
d at
st an
es .</w>
f o
i r</w>
y o
en g
智 能
g ni
o m
an g
al l
i es</w>
yo u</w>
a r</w>
no v
ic h</w>
resear ch</w>
h as</w>
the ir</w>
an ce</w>
pro vi
应 用
f ac
m ore</w>
wh ich</w>
t o
t a
y .</w>
in ter
the r</w>
s e</w>
d s</w>
领 域
en t
s er
inc lu
d o
su ch</w>
s h
w or
in nov
di s
p h
th is</w>
fi c</w>
un der
sp ec
si gni
ab le</w>
signi fic
pl ic
e v
ha ve</w>
i g
t enti
提 高
e ff
pl a
en c
tion s</w>
sci enti
b o
m an
提 供
u c
technolog y</w>
l a
创 新
er e</w>
g ra
dat a</w>
po tenti
hi gh
an t</w>
l l
k e
m s</w>
pl e
我 们
o p
安 全
t h</w>
h in
d es
e ar
k e</w>
r on
w a
develop ment</w>
影 响
e m
j ec
at ing</w>
ser v
h an
环 境
ne w</w>
b i
en er
ro u
W h
帮 助
lo w
C an</w>
ation al</w>
resear ch
th ese</w>
s t</w>
c re
un i
s ec
p ri
ti ve</w>
a te
a re
in du
potenti al</w>
m e</w>
问 题
di ff
可 能
ti es</w>
o ver
en s
u d
re s
u t
ation ,</w>
si on
ou s</w>
， 科技
g h</w>
men ts</w>
ti c</w>
进 行
gh t</w>
te x
ri bu
学 习
m at
us ed</w>
tr an
com m
k ing</w>
t ra
ol u
H o
form ation</w>
in v
ou t</w>
g i
人 工
I n
us e</w>
f e
ar g
f in
例 如
en e
pro ces
str uc
te c
ad v
如 何
co uld</w>
o b
重 要
in te
stan ding</w>
这 些
中 的
c or
c ur
Wh at</w>
ma g
人工 智能
per i
t ,</w>
科 学
wh at</w>
ar i
er i
fi el
di tion
d ,</w>
， 以
al ly</w>
al s</w>
en vi
系 统
re s</w>
生 物
ou r</w>
e ,</w>
the y</w>
under standing</w>
es s
使 用
网 络
il ity</w>
st ud
plic ations</w>
方 面
tw e
ing ,</w>
C hin
i d
iz e</w>
su p
envi ron
分 析
spec i
it e</w>
adv an
si on</w>
le a
p ac
be twe
betwe en</w>
的 发展
t e</w>
h e
in e</w>
ci al</w>
a ted</w>
计 算
al s
ur ing</w>
ic i
scienti fic</w>
cont ribu
ch ang
es s</w>
al y
p r
all eng
no t</w>
mi c</w>
st ri
c ri
ex pla
ch alleng
in to</w>
do es</w>
th o
2 0
syste m
par tic
im pro
ti v
i r
o ther</w>
el ec
h um
als o</w>
us ing</w>
教 育
现 实
ati ve</w>
ag e</w>
d ic
v ing</w>
signific ant</w>
s c
innov ation</w>
t or
po s
ve r</w>
信 息
th rou
w e
pl an
co ll
w i
pre s
能 够
科技 研究
能 源
provi de</w>
il l</w>
eff ec
医 疗
an aly
Ho w</w>
co ver
c u
ce p
w as</w>
pro duc
li m
ar y</w>
diff er
por t
新 的
a u
st ra
su m
ac h</w>
so ur
un d
g ro
推 动
st s</w>
ation .</w>
ex peri
im pac
or y</w>
ener g
re as
ab or
效 率
o uld</w>
r u
ap pro
利 用
tic al</w>
un d</w>
sup por
es t
inclu ding</w>
需 要
虚 拟
量 子
m on
si m
re c
s ?</w>
机 器
w ar
此 外
m in
pro jec
w ill</w>
c ap
al low
mar ize</w>
ment al</w>
g g
， 如
pl e</w>
indu stri
mat eri
I n</w>
lo c
e .</w>
ex p
首 先
ab ility</w>
expla in</w>
po l
il it
high -
保 护
e t
s hi
in f
h el
科 研
syste m</w>
p u
in formation</w>
s ur
一 些
li ke</w>
设 备
e d
mo de
th er
ec on
al l</w>
k s</w>
on g</w>
te s</w>
答 案
v ari
例如 ，
a in
企 业
ab out</w>
p at
tran s
s ti
g r
qu i
ro le</w>
de r</w>
re d</w>
Th ese</w>
ma in</w>
。 此外
throu gh</w>
ex am
其 次
re l
2 .</w>
en ts</w>
it al</w>
， 从
1 .</w>
research ers</w>
e o
dis cover
z e</w>
des ig
re a
答案 ：
eff ici
3 .</w>
tex t</w>
y ing</w>
经 济
， 可以
en ter
si b
co un
t ro
包 括
bi o
comp an
l es</w>
qu an
v es</w>
基 因
d ec
ph ys
li gh
uni ver
en ce
s es</w>
减 少
解 决
实 现
n ing</w>
or i
l s</w>
o per
inc reas
，从 而
。 例如，
A c
ment ,</w>
tu m</w>
over n
on e</w>
方 式
资 源
con cep
， 这
lo b
for m</w>
c el
su gg
n ational</w>
i c</w>
in e
on g
s ho
sugg es
ur al</w>
作 用
t ure</w>
处 理
ma y</w>
stra te
。 首先
方 法
l li
energ y</w>
ic e</w>
大 数据
si ve</w>
社 会
4 .</w>
ad d
comm un
哪 些
虚拟 现实
ke y</w>
d .</w>
impac t</w>
ag e
f u
w ould</w>
me tho
领域 的
as ed</w>
a ,</w>
tion ,</w>
。 ></w>
g overn
c ul
。 这
一 个
sci ence</w>
ic s</w>
g lob
v ed</w>
ar tic
su l
sp on
di g
a su
il e</w>
wh ere</w>
on s</w>
at u
管 理
。 其次
o ver</w>
id enti
联 网
re g
hum an</w>
add res
使 得
ac hi
B y</w>
quan tum</w>
p s</w>
中 ，
mi s
开 发
ac k</w>
用 于
未 来
A d
P ro
pu b
im plications</w>
no w
t ri
v al
re f
de tec
t y</w>
speci fic</w>
me asu
re spon
sec ur
r ite</w>
理 解
o mic</w>
al ity</w>
c es</w>
d ar
与 研究
可以 帮助
it y,</w>
d es</w>
th an</w>
le ve
h is</w>
ing s</w>
so me</w>
com ple
服 务
stud y</w>
d o</w>
challeng es</w>
ev olu
y p
fiel d</w>
质 量
。此外 ，
all y,</w>
技术 的
c er
s a
elec tr
g an
b ri
， 并
i li
s te
区 块
l arg
gro w
concep t</w>
ac ces
as e</w>
ment .</w>
an o
t s,</w>
cor ding</w>
pro mo
I t</w>
cont ro
k now
or s</w>
al iz
be en</w>
inv ol
区块 链
bu t</w>
en d
er ing</w>
n ec
vari ous</w>
technolog ical</w>
更 好
glob al</w>
的 影响
d ri
ec han
wor k</w>
确 保
l ed</w>
c ed</w>
us t</w>
wi th
dig ital</w>
inclu de</w>
enc y</w>
能 力
过 程
b ene
y ear
de v
f un
in ing</w>
comp u
ver s
ing .</w>
g o
t .</w>
g e</w>
en ab
indu str
人 员
t al
pro per
or gan
ma king</w>
tion ed</w>
s ing</w>
W rite</w>
l ing</w>
， 提高
re sul
ou t
te m
m ic
co p
用 户
y 's</w>
re gi
sp ac
w ere</w>
m echan
im port
生 产
em p
更 加
re ,</w>
主 要
ar ly</w>
设 计
以 下
re sour
coll abor
成 果
tw or
挑 战
inte gr
5 .</w>
st or
y n
预 测
se l
men tioned</w>
ac h
b ased</w>
p ul
t re
cur r
con si
tr ac
有 效
syste ms</w>
ter n
提供 了
dition al</w>
ate s</w>
- -
appro ach</w>
di vi
suppor t</w>
c ru
全 球
ap plications</w>
学 生
s s</w>
a v
lo w</w>
the m</w>
po w
differ ent</w>
产 生
a st
e t</w>
ve n</w>
治 疗
provi ding</w>
lea d</w>
进 步
ab ili
t ly</w>
E ar
inter ac
man age
性 和
li ght</w>
enter pri
po si
lim ate</w>
proces s</w>
st ar
ap plic
pl at
农 业
au th
u p
b r
工 作
l in
sti tu
科技 与研究
tion .</w>
fi r
enc es</w>
0 0
ti me</w>
th re
伦 理
g ener
c lo
i de
s on
ul ti
材 料
im ple
pro tec
log ical</w>
产 业
pl es</w>
合 作
中 国
pub li
ri s
il li
t s.</w>
的 研究
des cri
。 通过
自 动
lea ding</w>
c ar
le ar
an s</w>
in i
来 说
dition ally,</w>
t en
scienti sts</w>
c limate</w>
ne ed</w>
ation s,</w>
同 时
at ure</w>
Ad ditionally,</w>
s ol
su b
discover y</w>
ne twor
促 进
1 9
准 确
更好 地
提 升
U ni
cru cial</w>
y s</w>
ra p
l as
o ff
ac cur
wor l
d a
u m</w>
he al
sum marize</w>
疾 病
技术 ，
li f
z ing</w>
le ,</w>
产 品
hel p</w>
ic es</w>
si s</w>
er g
secur ity</w>
S ci
Ac cording</w>
f y</w>
mar ke
lli g
趋 势
signific ance</w>
e -
sib le</w>
n ano
变 化
partic ul
es t</w>
be r</w>
e f
divi du
什 么
mag ne
sc al
a x
机器 学习
工 具
a 's</w>
in dividu
h en
。首先 ，
technolog ies</w>
d ed</w>
i mag
so ci
econ omic</w>
gh ts</w>
ma in
项 目
pol ic
环 保
in si
b us
commun ic
e co
g en
ni qu
他 们
a m</w>
a use</w>
政 策
更 多
high ligh
val u
it y.</w>
t yp
ation s.</w>
o c
pre dic
be ing</w>
ab li
tech niqu
di rec
Th e
environ mental</w>
be ha
增 强
comple x</w>
s m
g u
advan ce
con duc
en han
物 联网
tu al</w>
持 续
tra ditional</w>
算 法
p a
vi e
ti ve
eng ine
c ing</w>
con text</w>
可以 通过
dec i
wor k
T ec
re duc
E n
。其次 ，
y ?</w>
ob serv
industri al</w>
an ce
p e
对 于
S um
， 为
重要 的
发 现
impro ve</w>
beha vi
e duc
bus in
pro gra
e f</w>
具 有
ob jec
需 求
contribu te</w>
tem per
struc tu
a ff
市 场
支 持
科技 在
i st
改 变
ec t</w>
i d</w>
achi e
优 化
最 后
总 的
总的 来说
strate g
bu il
se ver
u se
ac y</w>
as t</w>
ro bo
fo c
ens ure</w>
ut ure</w>
实 验
pr ac
po in
pl i
particul arly</w>
allow ing</w>
大 量
u p</w>
er ,</w>
带 来
su per
cre ate</w>
b ec
mi ght</w>
Sum marize</w>
i al</w>
有 哪些
est abli
ac k
pr in
t or</w>
l ine</w>
es ?</w>
so f
h ol
n ed</w>
inte llig
fin d
di st
are as</w>
c y
科技 创新
人 类
bene f
wh en</w>
hi gh</w>
许 多
ti m
is su
s en
qu ality</w>
z ed</w>
m ol
ti es,</w>
fu l</w>
平 台
o f
a .</w>
可能 会
l an
mic ro
re la
， 例如
。 这些
的 数据
ma ke</w>
de p
b rea
struc ture</w>
科学 家
com e</w>
h ar
研 发
网络 安全
re al
广 泛
le d
re qu
技术 在
太 空
sp h
tor s</w>
sugges ts</w>
f uture</w>
acces s</w>
lif e</w>
ec ul
fac e</w>
compan ies</w>
Tec h
ra di
d uring</w>
er s,</w>
探 索
g al
g a
materi als</w>
d s,</w>
a im
生 活
航 天
chang e</w>
，以 及
tw o</w>
t ur
Ear th
s k
宇 宙
w n</w>
le ar</w>
l ic
wh ile</w>
ti me
govern ment</w>
signific an
o d</w>
机器 人
g re
了 解
su c
con struc
D e
s mar
w el
C om
ti es.</w>
h y
健 康
bec ause</w>
know led
pro b
allow s</w>
electr on
tic s</w>
ag es</w>
sion s</w>
的 应用
r ic
cont in
bri ef</w>
工 程
ter ms</w>
wa ter</w>
The y</w>
c r
c a
知 识
curr ent</w>
监 测
n um
mol ecul
pri v
Chin a</w>
l y,</w>
in form
ma de</w>
b ra
R e
体 验
cap abili
en h
sh or
ec ted</w>
reg ul
控 制
， 我们
m ulti
man u
国 家
addres s</w>
Chin a's</w>
具 体
计算 机
univer se
ini ti
Tech nolog
suc ces
ence ,</w>
ta in</w>
的 安全
答案： <
数 字
el y</w>
publi c</w>
sever al</w>
shi p</w>
ef for
fo s
projec t</w>
develop ed</w>
de ta
措 施
s ens
re li
enh ance</w>
sho uld</w>
fun c
stan dar
si g
grow th</w>
mechan is
v en
con nec
mon it
co gni
gal ax
， 通过
fac ilit
on om
m ac
c en
l ack</w>
f er
ti g
comp e
不 断
inf lu
隐 私
x i
magne tic</w>
ac ter
。 最后
desig n</w>
高 效
化 的
可以 用于
per son
模 型
du ce</w>
fo cu
per form
ad ap
结 构
so cial</w>
s olu
re qui
be t
研究 的
find ings</w>
vers ity</w>
insi ghts</w>
m er
illi on</w>
关 键
一 种
pre ci
on ly</w>
benef its</w>
电 子
import ance</w>
评 估
C h
大 的
不 同
pat tern
s :</w>
manage ment</w>
根 据
wa y</w>
leve l</w>
n er
N e
focu s</w>
larg e</w>
R es
ex pl
ch ar
ag ing</w>
manu fac
co ur
par t
sof tw
b er
方 案
编 辑
the ory</w>
f a
ver ,</w>
organ iz
inter national</w>
f und
a de
j o
contin u
p i
p ho
develo p</w>
sp e
复 杂
ti ci
决 策
人 才
p ec
fo und</w>
develop ing</w>
s ed</w>
vi d
sim ul
innov ative</w>
us es</w>
u s</w>
du e</w>
r ang
me di
provi des</w>
医 学
解 释
20 1
te ch</w>
随 着
tex t,</w>
chang es</w>
g ene
significan tly</w>
bo o
on -
advan ced</w>
因 此
A I
e vid
contro l</w>
s am
al s,</w>
establi sh
compe ti
ar o
st and</w>
ment s,</w>
国 际
n uc
em erg
identi fy</w>
tion s,</w>
pro pos
or ing</w>
。 总的来说
artic le</w>
al ,</w>
突 破
st ain
plat form
we ver,</w>
n at
regi on
行 业
smar t</w>
te am</w>
f ul
， 使
in stitu
imple ment
evolu tion</w>
industr y</w>
以下 几
一 下
c us
正 在
g ori
a i
the m
通 信
analy sis</w>
C on
云 计算
可 持续
uni qu
mo der
g eo
n s</w>
inf ra
gra ph
or ig
Ho wever,</w>
ti mi
制 定
ex ist
In ter
F or</w>
measu re
d yn
制 造
e le
with in</w>
mode l</w>
tran sp
i es,</w>
cel er
measu res</w>
inv est
收 集
时 间
ne t</w>
enti al</w>
t ural</w>
e ach</w>
re si
atu res</w>
风 险
prob le
de mon
car b
advan t
spac e</w>
中的 应用
a si
gori th
de ter
te n</w>
识 别
econ om
p ur
无 人
pre hen
非 常
consi der
se qu
aro und</w>
资 金
po pul
基因 编辑
软 件
基 础
ma te
al gorith
technolog y,</w>
A n
y -
e p
su stain
o o
气 候
太 阳
相 关
strate gi
A s</w>
fir st</w>
A I</w>
char acter
模 拟
传 统
各 种
a d</w>
ment s.</w>
o us
ex per
f ra
ac celer
str eng
和 研究
con cer
ar ti
攻 击
heal th
公 司
lo y
re cogni
lim it
ic s,</w>
under stand</w>
op timi
降 低
。 在
dis cus
re .</w>
w s</w>
模 式
cri tical</w>
effici ent</w>
机 构
com b
tion al</w>
me d
ch a
enab ling</w>
wh o</w>
性 。</w>
pl ac
com prehen
uniqu e</w>
sim il
l ong
教 学
mo un
d in
bet ter</w>
promo ting</w>
nat ural</w>
al i
c are
ch em
w e</w>
e qui
M o
Res ear
ab ilit
物 理
elec tro
b le</w>
它 们
p an
cre ating</w>
理 论
aim s</w>
， 包括
个 性
descri b
i l</w>
me r</w>
coll ec
tiv ity</w>
partic les</w>
r an
ma j
诊 断
个 人
Chin ese</w>
lear ning</w>
其 他
c lu
mar y</w>
effec tive</w>
mac hin
il l
1 0
advance ments</w>
an g</w>
建 设
成 本
sh ap
ma k
bo th</w>
p hi
E x
sig n
更多 的
ens uring</w>
deta il
a ut
) ,</w>
f ur
tion s.</w>
at ory</w>
， 使得
科技 的
integr ation</w>
b ro
pow er</w>
， 帮助
实 时
， 减少
交 通
exam ples</w>
ear ly</w>
pl y</w>
on d</w>
t uring</w>
Sci ence</w>
real -
ma s
C o
ch i
p eo
med ical</w>
at or
h e</w>
c an
prin ci
proper ties</w>
th ere</w>
thre e</w>
技术 的发展
softw are</w>
environ ment</w>
5 G
远 程
城 市
发 挥
emp ha
fi ed</w>
behavi or</w>
fos si
tal ent</w>
mo st</w>
ple ,</w>
c ity</w>
t al</w>
精 确
Technolog y</w>
pro f
快 速
proces s
en o
ter s</w>
system s,</w>
d s.</w>
se ,</w>
mo sph
污 染
技术 可以
* *
t an
increas e</w>
fic ial</w>
sa fe
g e
metho ds</w>
the n</w>
深 入
comprehen sive</w>
情 况
功 能
maj or</w>
改 善
ti li
s '</w>
A r
pla y</w>
knowled ge</w>
l ess</w>
行 为
op port
research ,</w>
竞 争
增强 现实
we a
st o
enterpri ses</w>
建 立
t -
with out</w>
助 于
效 果
l es
g rou
brea k
me m
C ould</w>
度 和
shor t</w>
f t</w>
有 助于
rela ted</w>
ence .</w>
arg u
moder n</w>
pre vi
mode l
potenti ally</w>
in s</w>
和 分析
marke t</w>
scal e</w>
as s
我们 的
iz ed</w>
at mosph
impro ving</w>
医 生
aliz ed</w>
gra v
at t
par ag
carb on</w>
year s</w>
str u
s "</w>
prac tic
性 能
成 为
t arg
busin ess</w>
v ol
gene tic</w>
an y</w>
l ec
，科技 研究
之 间
enhan cing</w>
er o
进 展
rap h</w>
fur ther</w>
re le
药 物
achie ve
fiel ds</w>
d -
achi ev
th in
d ro
s cop
deci sion
mat ter</w>
方 向
s h</w>
parag raph</w>
collabor ation</w>
的 学习
技术 ：
a vi
H e</w>
患 者
再 生
al le
num ber</w>
st a
me as
resour ces</w>
phys ical</w>
tho se</w>
to ol
p ing</w>
ha d</w>
invol ves</w>
evid ence</w>
机 制
是 一个
不 仅
a str
I S
exam ple</w>
le .</w>
导 致
networ k</w>
u d</w>
N ational</w>
the or
in dic
serv ic
tran si
D N
-- --
效率 和
ces .</w>
tive ly</w>
inv es
exp an
am ong</w>
at trac
vi r
u ro
v in
st ate
应 对
i es.</w>
ess ential</w>
effici ency</w>
。 因此
simil ar</w>
人 们
comp on
la y
ac ti
re pres
目 标
promo te</w>
nuc lear</w>
t on
appro ach
mode ls</w>
y st
re cor
T o</w>
， 也
re por
sm all</w>
dat a,</w>
a moun
n ess</w>
ac coun
ris k</w>
te st</w>
是 什么
ro ss</w>
转 化
ra ther</w>
v olu
还 可以
sel f
vie w</w>
存 储
可以帮助 我们
tiv en
， 这些
在 线
di stan
B i
, 00
mis sion</w>
cen tr
of ten</w>
y our</w>
dev ic
en d</w>
dev ices</w>
c al
f il
di d</w>
e th
策 略
f ol
Earth 's</w>
互 联网
是 一些
改 进
e ds</w>
参 与
世 界
u tili
pr ene
st ,</w>
op en</w>
phys ics</w>
l y.</w>
nec ess
t ?</w>
增 加
个 方面
communic ation</w>
研究 人员
6 .</w>
p tion</w>
关 注
深 远
y m
on line</w>
以 及
e ven</w>
重 大
di se
fund a
成 功
的 重要
存 在
ir e</w>
sol ar</w>
coun tri
plan et
fic ation</w>
ac ross</w>
at om
th ou
ent ,</w>
更好地 理解
无人 机
str ong</w>
rang e</w>
system s.</w>
posi tion</w>
ci r
c las
z ation</w>
g res
prene ur
co l
u an
univer se</w>
驾 驶
strateg ies</w>
re ac
最 新的
temper ature</w>
团 队
m u
， 而
自 然
acti vi
en able</w>
太阳 能
人工智能 和
log y</w>
ph eno
pre v
industri es</w>
cre ation</w>
artic le,</w>
reduc ing</w>
ig n</w>
形 成
最 新
s ing
er s.</w>
A R
自动 化
w in
st ing</w>
worl d</w>
le g
操 作
ma ss</w>
采 取
选 择
t as
sh ar
dist ribu
rel ation
关 于
可 再生
Uni versity</w>
ent ly</w>
pl an</w>
reg ar
increas ed</w>
20 2
， 确保
wel l</w>
sc en
技术 和
c es,</w>
sen si
poin ts</w>
更 有效
tri c</w>
throu gh
f re
b ack
en cour
pheno men
re duce</w>
n on-
chem ical</w>
任 务
中 心
e l</w>
政 府
equi p
as es</w>
materi al</w>
uni ties</w>
foc using</w>
un der</w>
oper ation</w>
深 度
system ,</w>
更 准确
e d,</w>
对 环境
气候 变化
ref ers</w>
be li
tre at
construc tion</w>
li fe
perform ance</w>
highligh ting</w>
领域 ，
潜 在
succes s
import ant</w>
li k
大量 的
impro ved</w>
ent re
spec ies</w>
astr onom
empha si
develop ment,</w>
现 代
al s.</w>
。最后 ，
量子 计算
传 感
it ing</w>
a f
le ad
游 戏
polic y</w>
c ent
方面 的
metho d</w>
fo st
strategi c</w>
develop ment.</w>
al u
, "</w>
compu ter</w>
multi ple</w>
applic ation</w>
auth or
ta in
sur face</w>
m s,</w>
t 's</w>
hum an
analy ze</w>
结 果
金 融
fin an
compu ting</w>
A S
re mo
取 得
fo re
， 但
推动 了
plat form</w>
projec ts</w>
accur ate</w>
serv ices</w>
和 应用
实 际
emp loy
produc tion</w>
e ts</w>
活 动
t ation</w>
co s
m illion</w>
投 资
innov ation,</w>
individu als</w>
r .</w>
b lack</w>
l abor
作 物
entre preneur
20 0
techniqu es</w>
comp ut
先 进
in stru
时 ，
伦理 问题
capabili ties</w>
科技研究 的
机 会
pat ent</w>
manufac turing</w>
pattern s</w>
exam ple,</w>
con di
ta k
,00 0</w>
h u
科研 人员
know n</w>
性 的
纳 米
han d
serv ation</w>
en ted</w>
enab les</w>
已 经
tr y</w>
ic ul
D es
可再生 能源
空 间
。 同时
f ying</w>
detec t</w>
产生 了
lik ely</w>
vi su
b al
ap pli
ev ol
。首先 ，科技
funda mental</w>
par tici
i f</w>
- based</w>
st u
hi stor
e qu
sur ve
exp lo
se r</w>
获 取
e i
数据 的
数据 分析
到 了
ent s,</w>
k ,</w>
effor ts</w>
cont ra
electron ic</w>
dyn am
解决 方案
contribu ted</w>
bra in</w>
计 划
工 业
pow er
a il
re volu
艺 术
交 易
in tro
serv ice</w>
re s,</w>
A l
effec ts</w>
ev alu
en ing</w>
self -
fe atures</w>
以 上
en ci
experi ence</w>
over all</w>
优 势
pro gres
war ds</w>
dar k</w>
传感 器
loc al</w>
生 态
d om
st ate</w>
wa ys</w>
ce ,</w>
str ic
arti ficial</w>
com pl
加 强
稳 定
考 虑
inte gra
scen ari
ce i
invest ment</w>
stu di
k s,</w>
比 如
c am
组 织
to p
ance ,</w>
increas ing</w>
水 平
comm er
化 学
是 在
ta ke</w>
advant ages</w>
desig ned</w>
sustain able</w>
Pro f
m ,</w>
achie ve</w>
L i
D r.</w>
等 。</w>
algorith ms</w>
检 测
o x
法 律
resul ts</w>
f requ
research .</w>
结 合
ous ly</w>
f lu
me ans</w>
limit ations</w>
pec i
g en</w>
特 别
发展 的
high er</w>
or b
ver y</w>
卫 星
p ed</w>
现 在
as ter</w>
S .</w>
ic k
ati c
S u
comm on</w>
， 实现
z es</w>
condi tions</w>
是 一种
cha in</w>
con sum
se t</w>
peo ple</w>
po se</w>
ful ly</w>
monit oring</w>
man y</w>
O n
engine ering</w>
system .</w>
provi ded</w>
sugges t</w>
有 何
ati c</w>
， 它
ra y</w>
bi g</w>
商 业
h er
防 止
differ ence</w>
th es
ter m</w>
地 球
partic le</w>
共 享
contribu tions</w>
e p</w>
highligh ts</w>
heal th</w>
out com
is t</w>
，我们 可以
le ver
积 极
ur b
hi st
H u
ic ally</w>
ac t</w>
con dition
D i
priv acy</w>
proces ses</w>
respon se</w>
issu es</w>
aliz ation</w>
增 长
ation ?</w>
high- tech</w>
shi p
领域的 应用
orig in
exp ected</w>
character is
demon str
A mer
enterpri s
tech n
贡 献
cul tural</w>
交 流
soci et
wh y</w>
mi tig
Amer ic
technolog y.</w>
ex tre
l l</w>
ve ment</w>
提供 更
as soci
are d</w>
evolu tion
的 问题
潜 力
和 增强现实
一 步
te les
法 规
intellig ence</w>
D at
c ro
区块链 技术
验 证
系统 的
aff ect</w>
pla y
inclu des</w>
produc t</w>
trans formation</w>
teles cop
g s</w>
it u
use r</w>
u tr
s yn
differ ences</w>
cel l
ati v
decision -
认 为
G u
be come</w>
se .</w>
Resear ch</w>
家 居
buil ding</w>
M ar
透 明
ther mo
ess or</w>
) .</w>
lo o
propos ed</w>
appli ed</w>
加 密
mate ly</w>
fun ding</w>
busin ess
vir tual</w>
j ust</w>
er -
sion al</w>
之间 的
k ed</w>
fo und
依 赖
il y</w>
s ate
实 施
创 造
sion ,</w>
pos sible</w>
军 事
individu al</w>
sec tor
men tions</w>
案 例
c at
b ack</w>
以下几 个方面
In stitu
machin e</w>
。其次 ，科技
clo ud</w>
手 术
m ine</w>
物 质
价 值
influ ence</w>
wor king</w>
ch e
y :</w>
可以 在
ati ve
p er</w>
necess ary</w>
R &
exist ing</w>
： 通过
体 系
c ore</w>
om e</w>
ser ve</w>
ver se</w>
提高 了
性 ，
challeng e</w>
ne ed
fra me
dep end
fost ering</w>
al .</w>
intro duc
typ es</w>
ne eds</w>
sho w
regar ding</w>
diff icul
sib ility</w>
or din
us ers</w>
produc ts</w>
v o
long -
revolu tion
te am
compl ex
l and</w>
的 科技
。这 种
学 科
safe ty</w>
ad op
角 色
es ti
concer ns</w>
速 度
ide a</w>
个性 化
re ve
de ep
as si
l es,</w>
因 素
d ra
传 输
y "</w>
streng th
程 序
leve l
培 训
fac tors</w>
b loc
dri ven</w>
comb in
a k
tool s</w>
体 的
for ce</w>
analy zing</w>
dri ving</w>
精 准
experi ment</w>
出 现
pl er</w>
进 一步
dat a.</w>
t t
peri o
hel ps</w>
排 放
men ted</w>
ic s.</w>
适 应
educ ation</w>
显 著
progra m</w>
应用 于
ch o
遗 传
cr yst
c enter
min im
威 胁
n ature</w>
ve l</w>
ll ec
techn ical</w>
U .
spe ed</w>
s )</w>
m y</w>
是 否
person al</w>
fol low
de fin
inclu de
R o
H ig
人工智能和 机器学习
tiven ess</w>
in ste
因 为
trans form
是什么 ？</w>
汽 车
I mag
m ing</w>
tra ining</w>
ne utr
r ate</w>
ent s.</w>
li mi
ex t
at ors</w>
stud ents</w>
solu tions</w>
标 准
bo d
con sequ
科技 的发展
pub lic
dat a
的 创新
er e
新 兴
detec tion</w>
供 应
res olu
请 解释
addres sing</w>
o wn</w>
hum ans</w>
a y</w>
o re
fi t</w>
av ail
De velo
社 交
智能 家居
c are</w>
E uro
eth ical</w>
an im
ang u
grow th
llec tual</w>
me dic
目 前
bio logical</w>
I o
大数据 和
多 种
访 问
co st
调 整
include :</w>
high- quality</w>
valu e</w>
opport unities</w>
t able</w>
protec t</w>
innov ation.</w>
time .</w>
str y</w>
cy ber
analy si
universe .</w>
transp or
polic ies</w>
. "</w>
behavi or
auth or</w>
ur n
a war
及 时
探 测
监 控
面 临
方面 ，
， 同时
。 以下
desig n
实 践
sk il
新 型
finan cial</w>
L a
qu es
aff ec
prof es
o ce
， 促进
to ge
Prof essor</w>
例 子
invol ved</w>
gro und</w>
g as</w>
w at
h ab
implement ing</w>
go al</w>
un g</w>
e ar</w>
DN A</w>
transp ar
boo k</w>
人工智能 在
J o
st ar</w>
hist ory</w>
C ol
f er</w>
带来 了
图 像
en s</w>
r ac
大 大
re ach
at omic</w>
m ilit
platform s</w>
ac ade
describ ed</w>
de f
molecul ar</w>
有 许多
lan d
i gh
integra ted</w>
生物 技术
训 练
细 胞
time ,</w>
an ci
rea ter</w>
enc ed</w>
投 入
mo b
描 述
sci ence,</w>
s on</w>
it able</w>
做 出
sour ce</w>
可以 提高
和 创新
M e
H e
proper ty</w>
总 之
di men
。 再
effici enc
te s,</w>
comm it
fossi l</w>
associ ated</w>
地 区
cer tain</w>
提 出
thin k</w>
inter net</w>
meas ure</w>
， 对
构 建
der s</w>
的 技术
break through
intellig ent</w>
可 靠
ris ks</w>
重要 作用
ch arg
或 者
on ,</w>
mechanis ms</w>
fin ding</w>
作 为
。同时 ，
robo ts</w>
pri ori
U. S.</w>
ag ain
改变 了
per spec
o w
be y
p ati
ra is
pres ence</w>
ch ain
生 命
l angu
en ds</w>
cal cul
ear th
s -
可持续 发展
deter mine</w>
条 件
al low</w>
protec tion</w>
环境 保护
取得 了
rap id</w>
In te
re cei
rel ate</w>
m ust</w>
历 史
s ha
commun ity</w>
grav it
expla ining</w>
S o
b illion</w>
P le
anci ent</w>
t in
分 配
leve ls</w>
5 0
。总的来说 ，
学生 的学习
prev ent</w>
o ther
M ic
关 系
V R
培 养
交 互
战 略
、 更
m s.</w>
内 容
sum mary</w>
等 领域
contro ll
diff er</w>
C R
sci pl
避 免
techniqu e</w>
si ze</w>
cy c
量子 计算机
sensi tive</w>
ro n</w>
m al</w>
sam e</w>
上 的
和 治疗
h er</w>
aut om
sing le</w>
an n
to wards</w>
di scipl
vie w
valu able</w>
star s</w>
hy dro
ga in</w>
t on</w>
facilit ate</w>
新 能源
自动 驾驶
go als</w>
d ?</w>
O p
are a</w>
at or</w>
lin es</w>
建 议
帮助 我们
speci fic
di ag
R& D</w>
partici p
compan y</w>
urb an</w>
tak en</w>
con ver
。总的来说 ，科技
publi sh
ent .</w>
， 还
ati s
F ur
原 理
op tical</w>
diff ers</w>
Dat a</w>
范 围
ter n</w>
pho to
In nov
plan s</w>
pro vin
规 模
化 和
again st</w>
专 业
shar ing</w>
exper ti
C O
emerg ing</w>
意 义
contribu ting</w>
限 制
。此外 ，科技
wa ve</w>
observ ed</w>
f le
t ar
no w</w>
inte llectual</w>
Ear th</w>
变 得
sim pler</w>
infra structure</w>
deter min
S T
Ple ase</w>
prac tical</w>
未来 的
I m
有 很
temper atu
o l</w>
ance .</w>
ag e,</w>
至 关
动 力
。例如， 通过
有 着
typ e</w>
定 期
发 生
sti ll</w>
， 比如
p ast</w>
深度 学习
ac tive</w>
Imag ine</w>
ing :</w>
如何 影响
ai m</w>
虚拟现实 和增强现实
tex t?</w>
sur fac
k in
设备 和
资源 的
。 另
strateg y</w>
bey ond</w>
te ,</w>
implement ation</w>
用户 的
se e
o me
co operation</w>
ac i
on es</w>
b ur
互 动
all ,</w>
通 常
detail ed</w>
设备 的
经济 发展
con servation</w>
。 它
technolog ies,</w>
科学 研究
s ure</w>
A p
P ar
n or
n o</w>
do wn</w>
che mi
， 推动
涉 及
规 划
pl as
获 得
T i
evolution ary</w>
特 定
descri be</w>
a ir</w>
stud ying</w>
resour ce</w>
er 's</w>
countri es</w>
ta ining</w>
hy po
ment ?</w>
comp ared</w>
风 能
影响 ？</w>
re ad
wea ther</w>
for e</w>
B o
organ is
expl or
Hig gs</w>
的 信息
打 印
C en
然 而
更准确 地
产 权
er ed</w>
requi re
P h
pri mary</w>
多 个
ref lec
Inter net</w>
p as
M E
mas sive</w>
accur acy</w>
eco system</w>
S ta
疾病 的
介 绍
com ing</w>
or por
l at
部 分
log y,</w>
inves tig
实验 室
。以下 是一些
form s</w>
A f
s un
previ ous</w>
mis sion
现 象
resul ting</w>
se a</w>
ab s
suppor ting</w>
科技 对
测 试
a ir
st re
c lear</w>
sh are</w>
requ ire</w>
o s
a s,</w>
U n
J i
radi ation</w>
ci vi
On e</w>
直 接
公 平
f our</w>
achiev ed</w>
co ordin
rela tes</w>
o s</w>
连 接
environ ment.</w>
ap p
an ti
大数据 分析
econom y</w>
也 在
太空 探索
di versity</w>
re s.</w>
princi ples</w>
观 测
共 同
suppor ts</w>
discipl in
G oo
保 持
语 言
in t
achieve ments</w>
en se</w>
interac tions</w>
公 众
tic s,</w>
bi r
n es
ex hi
fle xi
， 特别
手 段
proces sing</w>
应 该
low er</w>
al -
iz ing</w>
k s.</w>
cu sto
sel ec
min i
虚拟现实 技术
ati ves</w>
l -
复杂 的
知识 产权
in ten
重要的 作用
d ron
智 慧
an d
环境 问题
da mag
s in
U S</w>
tim es</w>
su res</w>
es :</w>
r e</w>
long- term</w>
gravit ational</w>
可以 提供
mu ch</w>
P R
thre at
文 化
更 新
la ser</w>
f low</w>
avi g
加 速
gra du
demon stra
shi ps</w>
rele v
- ray</w>
e asi
structu res</w>
elec tric</w>
d ens
sear ch</w>
c le
b asi
竞争 力
abilit y,</w>
媒 体
vi s
preci se</w>
iz ation</w>
success ful</w>
resi d
l eng
燃 料
over come</w>
milit ary</w>
effec tively</w>
clu st
peci ally</w>
Goo g
其 中
es pecially</w>
er .</w>
buil d</w>
无 法
就 业
ro c
resolu tion</w>
e ment</w>
En g
sup ply</w>
expl ore</w>
核 心
预 防
多 样
和 数据
progres s</w>
so li
c la
都 是
manufac tur
man i
O b
ul ar</w>
b ar
af ter</w>
道 德
测 量
教 师
场 景
ol d</w>
er r
绿 色
A u
他们 的
oc cur
mechanis m</w>
amoun t</w>
更有效 地
j i
in form</w>
Institu te</w>
a mic</w>
loc ation</w>
c it
pla ys</w>
se en</w>
earth qu
n avig
com men
密 码
科技与研究 的
gen e</w>
real- time</w>
me t
得 到
phi c</w>
自 主
industr y,</w>
N S
基因 组
分 布
direc t</w>
studi es</w>
toge ther</w>
war d</w>
gro und
par t</w>
p ite</w>
L e
distribu tion</w>
满 足
ed .</w>
S han
larg er</w>
repor t</w>
objec ts</w>
inter n
previ ously</w>
breakthrough s</w>
N o
wa ve
shi ft</w>
消 费
基 于
low -
de li
记 录
g reater</w>
真 实
consi st
basi c</w>
applic ations.</w>
ac cording</w>
分 享
mat ter
ma ted</w>
m it
sens ors</w>
生产 效率
enci es</w>
科技 成果
科学家 们
数据 ，
play ed</w>
h ic
priori ti
a me
融 合
inter pre
be fore</w>
先进 的
inc orpor
传 播
o ,</w>
W e
P ri
医疗 服务
3 D
ox y
consequ ences</w>
con ven
requi res</w>
al ig
ing s,</w>
imple mented</w>
el abor
K e
确 定
sec ure</w>
， 提升
b or
wi de</w>
ric ul
M a
， 降低
the ore
ele ments</w>
Uni ted</w>
c ase</w>
ag ricul
个性 化的
respon sible</w>
jo urn
m un
S ome</w>
过程 中
智能 化
巨 大的
contribu tes</w>
： 这
priv ate</w>
tiv es</w>
s ym
institu tions</w>
tr u
optimi ze</w>
ma them
micro scop
specific ally</w>
自 己
全 面
measure ment</w>
enc es,</w>
in stan
2 )</w>
。因此 ，
stri al</w>
ex plan
1 .
coun tr
relation ship</w>
conduc ting</w>
Fur thermo
Furthermo re,</w>
设计 和
enhan ced</w>
Ne w</w>
ro b
galax ies</w>
， 让
compon ents</w>
c l
e 's</w>
progra m
s ch
丰 富
op en
ru p
cre ated</w>
n ex
in 's</w>
effec t</w>
ll ite</w>
knowled g
eri c</w>
受 到
co st</w>
ass ess
regi ons</w>
In du
ul tra
r ul
galax y</w>
l ,</w>
identi fying</w>
cul tiv
大 学
。 然而
co lli
技 能
天 文
. ,</w>
interac t</w>
技术 、
dynam ics</w>
数字 化
qu ar
structu re,</w>
s al
electro n</w>
elabor ate</w>
con fi
difficul t</w>
基 本
e ?</w>
al o
，从而 提高
特 征
清 洁
ve hic
ex ten
7 .</w>
和 技术
poin t</w>
molecul es</w>
li ving</w>
al tern
rob ust</w>
imag e</w>
establish ment</w>
to p</w>
off er</w>
il d
characteris tics</w>
吸 引
re commen
activi ties</w>
改 革
3 0
要 求
p ut
phys ics,</w>
main tain</w>
business es</w>
总之 ，
affec ts</w>
wa ves</w>
pro te
mi gr
il lu
at ter
sur ro
M R
电 池
u b
targ e
atom s</w>
1 8
状 态
我们 可以
分 子
s w
conduc ted</w>
Innov ation</w>
standar ds</w>
fe ed
ar chi
sub stan
or s,</w>
bod y</w>
是 如何
美 国
科技 和研究
我们 能够
ste ps</w>
in -
enti on</w>
专 家
practic es</w>
high ly</w>
materi als,</w>
inform ed</w>
所 有
ti z
pu t</w>
con stan
等 方面
pro duce</w>
O ver
采 用
意 识
mob ile</w>
f aster</w>
dri ve</w>
cap ac
W or
te sting</w>
imag es</w>
la ws</w>
regi on</w>
to tal</w>
part ner
histor ical</w>
com par
fe w</w>
end ed</w>
m il
Resear ch
2 .
predic t</w>
pol lu
fac tor
效率 。</w>
ing ?</w>
do cu
deci sions</w>
sour ces</w>
高效 的
供应 链
l es.</w>
d 's</w>
a ero
organiz ations</w>
患者 的
health care</w>
a der</w>
technolog ies.</w>
Wh en</w>
手 机
漏 洞
servic es,</w>
invol ve</w>
it .</w>
c tic</w>
I f</w>
执 行
有很 多
se par
宇宙 的
产生了 深远
极 大
和 预测
trans fer</w>
ho u</w>
ev ents</w>
frequ ency</w>
1 )</w>
up gra
m ul
cen ter</w>
bene fit</w>
i lo
dev ice</w>
as se
Ac ade
， 提供
反 馈
establish ed</w>
av o
mitig ate</w>
engine er
gener ation</w>
力 学
rec ent</w>
外 ，
和 发展
on duc
mathem atic
si de</w>
universe ,</w>
dyn amic</w>
3 D</w>
ation :</w>
achiev ing</w>
等 ，
Bi g</w>
vi sion</w>
yo ung</w>
bro ader</w>
详 细
origin al</w>
G re
升 级
ac tiv
sate llite</w>
limi ted</w>
is e</w>
常 见
surve ill
stor age</w>
N or
身 份
和 处理
resour ces,</w>
impac ts</w>
ate ly</w>
allow ed</w>
希 望
wh ere
con fir
adap t</w>
等 。
S t
m a</w>
E inste
技术 来
succes s</w>
energ y,</w>
特 性
和 安全
修 复
leg al</w>
M an
skil ls</w>
integr ating</w>
5 0</w>
反 应
in sp
extre me</w>
粒 子
manage ment,</w>
equip ment</w>
化 石
运 行
pur su
f ri
任 何
cos mic</w>
Wh ile</w>
st ates</w>
compu ter
ac tions</w>
B ei
educ ational</w>
t un
t le</w>
imag ing</w>
at eri
dist inc
，以 确保
in ,</w>
an ces
ne r</w>
tr ends</w>
po li
Shan gh
exist ence</w>
amoun ts</w>
industri es,</w>
employ e
C E
： 在
ext inc
ed ge</w>
proces s.</w>
de gre
的 环境
为 了
mak es</w>
electr ons</w>
co ver</w>
ac tivity</w>
abilit y.</w>
的 方法
grou p</w>
Americ an</w>
体 现在
cir cu
electr ical</w>
便 捷
he at</w>
移 动
remo te</w>
inform ation,</w>
en sures</w>
k y</w>
aut onom
能 否
不 可
li qui
in depend
d ate</w>
P o
首先 ，
由 于
tu re,</w>
ti tu
fac ed</w>
比 特
z h
pro to
鼓 励
enab led</w>
推 进
建 筑
un ding</w>
sa ur
相 互
year s,</w>
requi red</w>
plac e</w>
强 大的
re ality</w>
G P
transi tion</w>
ser ies</w>
establi sh</w>
，以 便
l ong</w>
I P
当 前
where as</w>
w r
fore ign</w>
相关 的
frame work</w>
foc used</w>
fa il
空 气
技术 ，可以
物理 学
decision- making</w>
univer si
resul t</w>
b a
能 量
cel ls</w>
bi li
F o
influ enced</w>
ev ent</w>
effec tiveness</w>
b ul
plan ets</w>
for ce
设 施
fos ter</w>
1 0</w>
有 什么
p s,</w>
la w
cor rec
ch ing</w>
( S
standar d</w>
qu al
collec tion</w>
acces sible</w>
创 建
approach es</w>
科技 进步
公 共
x im
it s,</w>
contra st,</w>
g l
cont ent</w>
accoun t</w>
如何 帮助
enterpris es,</w>
保 障
ing -
S ou
foc uses</w>
在 科技研究
comp are</w>
阶 段
le ?</w>
mani pul
问题 ，
se mic
st s,</w>
re main
as .</w>
19 9
as pec
ti s
ag e.</w>
sec ond</w>
CR IS
beli ev
am e</w>
semic onduc
ulti mately</w>
和 管理
sion .</w>
r en
la test</w>
e y
Euro pe
respon d</w>
con centr
han d,</w>
sur vi
recogni tion</w>
的 需求
pos ed</w>
fi ve</w>
da y</w>
ag ed</w>
w n
te le
i so
应用 程序
theore tical</w>
environ ment,</w>
3 )</w>
的 方式
li c</w>
de n</w>
以下几个方面 ：</w>
gu i
a i</w>
proble ms</w>
it er
行 星
来 源
更好 的
consider ed</w>
ex pres
农 作物
cer tain
m or
隐私 保护
d g
bal ance</w>
的影响 。</w>
relev ant</w>
region al</w>
f ar
expan sion</w>
se e</w>
mo di
collabor ative</w>
这 一
便 利
如 果
， 将
前 景
real- world</w>
fiel d.</w>
过程 中，
ref er
H is</w>
fre e</w>
main taining</w>
CRIS PR
monit or</w>
off ers</w>
观 察
medi a</w>
还 可以用于
转 型
研究 中
Gu ang
y ear</w>
experti se</w>
evol ved</w>
Bei j
wel l-
m an</w>
direc tly</w>
学 术
te d,</w>
生活 质量
极大 地
平 衡
to -
preci sion</w>
applic ations,</w>
社交 媒体
repres ent
diag no
star tu
高 质量
状 况
ri ght</w>
人 的
ul ner
tu ally</w>
experi ments</w>
Af ric
飞 行
d ru
普 及
gu id
discover ed</w>
的 主要
v ast</w>
de ep</w>
研究 和
um -
proces s,</w>
ne g
en ces.</w>
qu ick
l ying</w>
工具 和
产 量
be hin
来 越
m .</w>
impro ve
ar d</w>
gener al</w>
distan ce</w>
describ ing</w>
越 来越
dom es
larg e-
devic es,</w>
bloc k
概 念
facilit ating</w>
experi mental</w>
wor ks</w>
shap e</w>
se tt
year s.</w>
p e</w>
对 社会
ph ase</w>
ab le,</w>
stre am
in ed</w>
， 因为
ing s.</w>
遥 感
ap er</w>
re spec
k .</w>
tr ack</w>
spec tro
sha red</w>
重 点
de part
bo und
s itu
wi de
reduc ed</w>
competi tive</w>
ro o
re fin
l ab
fo od</w>
v ulner
pl ies</w>
ac tion</w>
graph y</w>
ref l
publish ed</w>
exhi b
centr al</w>
popul ation</w>
a w
不同 的
spec tr
课 程
pres sure</w>
cam er
au di
起 着
科技 发展
nex t</w>
an ,</w>
X i
程 度
chang e.</w>
acade mic</w>
func tion
do m</w>
收集 和分析
st able</w>
re al</w>
恶 意
开发 出
产品 的
sc ap
m illi
跨 学科
th s</w>
di verse</w>
An tar
tas ks</w>
展 示
食 品
medic in
func tion</w>
recor d</w>
b ility</w>
S yste
Over all,</w>
st atis
interac tion</w>
转化 为
mini str
alle r</w>
引 发
ci tiz
讨 论
大 规模
power ful</w>
peri od</w>
hab it
g or
F i
lear n</w>
inform ation.</w>
心 理
avail able</w>
相 应
fer ence</w>
c all
促进 了
pa per
an ts</w>
ci ties</w>
advance ment</w>
is h
b on
指 导
mo ve
chang ing</w>
区 域
consi der</w>
10 0</w>
s tic
langu age</w>
ab o
S hen
推 广
complex ity</w>
mechan ical</w>
l ine
h al
b est</w>
兴 趣
m b
mo tion</w>
as sum
： 随着
泄 露
创 业
Chin a,</w>
behin d</w>
attrac t</w>
其次 ，
开 始
emphasi zes</w>
as es,</w>
m el
ing "</w>
灾 害
人们 的
gra phic</w>
问题 的
沉 浸
detail s</w>
atmosph eric</w>
研究 者
传统 的
ci d
sm aller</w>
deta il</w>
A s
um ,</w>
r y</w>
land scap
initi atives</w>
望 远
b ers</w>
Io T</w>
issu e</w>
vi de
cent ur
1 00
扮 演
life .</w>
en e</w>
有 所
v al</w>
research ?</w>
civi li
S tan
当 然
i red</w>
wh e
we ap
基因编辑 技术
for ces</w>
Cen ter</w>
， 需要
研究 成果
es "</w>
望远 镜
oc cu
火 星
d en
c li
v es,</w>
lever aging</w>
ta king</w>
treat ment</w>
性 。
t y,</w>
i s,</w>
establish ing</w>
discover ies</w>
me an
运 动
num er
growth .</w>
fac ili
ation s?</w>
的 进步
流 程
气 体
在 教育
univer s
auth ors</w>
Bi o
theor ies</w>
fiel ds,</w>
effec tive
W i
( C
expl oring</w>
cy ber</w>
P lan
z hou</w>
F ac
防 御
is m</w>
la w</w>
hol e</w>
ri ghts</w>
plan et</w>
Develo p
liqui d</w>
也 可能
visu al</w>
o xi
Q uan
， 我
维 护
z one</w>
evalu ation</w>
cel l</w>
fri end
form ed</w>
3D 打印
管理 和
thes is</w>
jec t</w>
r yp
f low
黑 客
stric t</w>
Sci enti
bo di
me tr
j u
brea king</w>
的 依赖
到 的
to ol</w>
ast ro
消费 者
mis sions</w>
cul ture</w>
S pac
的 效率和
sin ce</w>
mo ve</w>
fo o
Uni vers
ar ies</w>
经 验
progra ms</w>
黑 洞
如何 利用
networ ks</w>
， 能够
尤 其
industr y.</w>
be g
aspec ts</w>
之 一
te s.</w>
discus sed</w>
c um
。 随着
Research ers</w>
星 系
se ly</w>
gu ide
atmosph er
6 0
super nov
s tic</w>
- 1
neutr in
argu es</w>
ag re
创新 和
fo rec
W ith</w>
T o
thou ght</w>
sh e
le -
resi stan
large- scale</w>
al ing</w>
这 种
接 受
---- ----
solu tion</w>
航 空
总 结
targ et</w>
o saur
no vel</w>
meas uring</w>
grow ing</w>
cro s
commit ment</w>
的 使用
continu ous</w>
c ra
a ver
旨 在
。最后 ，科技
sti mul
engine ers</w>
U S
Europe an</w>
on .</w>
和 服务
analysi s,</w>
S e
开 放
ques tions</w>
der al</w>
deep er</w>
技术的 应用
clas s
ative ly</w>
针 对
潜在 的
敏 感
process es,</w>
c ut
高 的
温 度
serv ing</w>
oxy gen</w>
environ ments</w>
chang e,</w>
、 智能
revolution ize</w>
责 任
S ec
更有效 的
Ph ys
介绍 一下
shap ing</w>
mo ving</w>
ing u
，特别 是在
t s?</w>
secur ity,</w>
me ter
altern ative</w>
在 医疗
per form</w>
outcom es</w>
con su
or der
fin d</w>
变得 更加
e ve</w>
I T</w>
没 有
it y?</w>
quan ti
observ ations</w>
ir ing</w>
oce an</w>
en ding</w>
Eng ine
下 ，
follow ing</w>
princi ple</w>
industri es.</w>
lo ss</w>
are :</w>
M ac
完 成
发挥 了
ther e
si bili
experi ences</w>
coun ter
a ?</w>
就 是
exper ts</w>
I C
也 是
p aper</w>
fiel d,</w>
ca used</w>
R i
。再 者
intern al</w>
ti ce</w>
sp ati
so und</w>
co ol
生物 学
废 物
t ons</w>
comple te</w>
ve ,</w>
mo vement</w>
篡 改
t "</w>
condition s.</w>
capabili ties.</w>
i an</w>
预测 和
ther ap
nuc le
it ,</w>
长 期
re ach</w>
plan ning</w>
targe ted</w>
S E
机器学习 算法
企业 的
事 件
si lic
和 社会
o -
n ing,</w>
de b
br an
材料 的
custo mer</w>
sec tor</w>
kin d</w>
ther mal</w>
s ite</w>
al titu
全球 化
controll ed</w>
com es</w>
生物 技术在
专 利
se ts</w>
an om
sec on
enterpri se</w>
con clu
Mic ro
员 工
eng age</w>
e "</w>
ta x</w>
神 经
L abor
加 快
tu re.</w>
la un
continu e</w>
Pro vin
i ght</w>
reli able</w>
ar t</w>
sign als</w>
dimen sional</w>
ca using</w>
ad ditional</w>
li es</w>
devic es.</w>
dat ab
S un
农 民
信 号
位 置
inc enti
cyber security</w>
灵 活
mar ine</w>
commer ci
can not</w>
创新 的
地 位
lay er</w>
每 个
寻 找
I T
work ,</w>
v an
temper atures</w>
de dic
gre en</w>
农业 生产
su itable</w>
evolu tion,</w>
" ,</w>
u an</w>
jo b</w>
evolu tion.</w>
负 面
提供了 新的
保 证
theor y,</w>
cont ain
un certain
robo t</w>
need ed</w>
经济 增长
更 深入
is tic</w>
数据 安全
性 、
projec t,</w>
cos mo
造 成
最 近
原 子
lead er
这 个
te d.</w>
surro unding</w>
e u
consider ing</w>
surveill ance</w>
age ment</w>
Acade my</w>
质量 和
do wn
dis rup
消 耗
内 部
人类 的
相应 的
前 沿
pres ent</w>
clas si
Z h
archi tec
综 合
土 壤
z on
re ly</w>
off ering</w>
me te
found ation</w>
el s</w>
ong o
connec ted</w>
当然 可以
g am
发挥 着
oxi de</w>
de ,</w>
co oper
awar en
问题 。</w>
主要 体现在
性 质
labor atory</w>
推 荐
phenomen on</w>
inter es
combin ation</w>
I s
经济 的
co sts</w>
3 .
' t</w>
，提高 了
S ch
P re
w rite</w>
disciplin ary</w>
ne l</w>
earthqu a
Quan tum</w>
报 告
it 's</w>
stud y's</w>
innov ations</w>
xi mately</w>
decision- mak
L E
I D
A no
完 善
合作 ，
定 位
process es.</w>
inter fac
back ground</w>
ap pe
强 化
o th
deci sion</w>
- driven</w>
tur n</w>
的 准确
ex change</w>
- C
区块链 技术在
st ability</w>
hel ped</w>
天文 学
大量 的数据
sen se</w>
航天 器
st om
hol es</w>
we b
s ted</w>
A P
mo d
desig ning</w>
cap ture</w>
请解释 一下
instan ce,</w>
中的 作用
feed back</w>
de m
视 频
总的来说 ，
Pro vi
te .</w>
娱 乐
ide as</w>
explor ation</w>
compu ters</w>
a y
organ ic</w>
me et</w>
h ear
commer cial</w>
c ause</w>
sugges ting</w>
pro ce
me ter</w>
in t</w>
中 提
tern al</w>
pro pose</w>
lim in
集 成
垃 圾
de man
ri se</w>
ke hol
educ ation,</w>
还 有
我们 对
detec ting</w>
curr ently</w>
行 动
cor por
温 室
协 同
esti mated</w>
cla im
的 工作
明 确
吗 ？</w>
tion ?</w>
spati al</w>
com position</w>
coll ect</w>
or der</w>
al ong</w>
advan cing</w>
，例如 通过
typ ically</w>
it s.</w>
请 描述
恒 星
中国 在
： 人工智能
几 个
Inter national</w>
rap id
appro ximately</w>
找 到
i on
Mo de
学习 和
公 正
F e
涉及 到
。另 外，
rel ation</w>
initi al</w>
gi ven</w>
客 户
合 约
re view</w>
n ,</w>
gener ate</w>
cap able</w>
bar ri
ation 's</w>
生 成
工程 师
servic es.</w>
profes sional</w>
orig in</w>
optimi zing</w>
。这 一
worl d.</w>
radi o</w>
conduc t</w>
comput ational</w>
ation "</w>
condition s,</w>
vie ws</w>
me try</w>
治 理
person alized</w>
beli eve</w>
S ME
导 航
discus s</w>
DN A
ti al</w>
scenari o</w>
life ,</w>
health care
enti re</w>
N AS
sta kehol
explan ation</w>
F ir
Develop ment</w>
n ess
efficienc y,</w>
4 0
under lying</w>
planet ary</w>
系 列
被 用于
科研 成果
phys ics.</w>
f ron
th ,</w>
quick ly</w>
profes sion
eco logical</w>
的 挑战
speci al</w>
initi ative</w>
confi d
ac ks</w>
理解 和
浪 费
早 期
分 类
激 光
是 一
per cep
et y</w>
4 .
量子 通信
和 资源
enc ing</w>
domes tic</w>
激 发
恢 复
perspec tive</w>
main ten
领域 中
y s.</w>
capabili ties,</w>
artic le?</w>
化石 燃料
oper ational</w>
fiel ds.</w>
structu re.</w>
st -
表 现
业 务
remain s</w>
ate ,</w>
am in
v it
govern ance</w>
autonom ous</w>
处理 和分析
up on</w>
诊断 和治疗
objec tives</w>
hi m</w>
direc tion</w>
con trac
X -ray</w>
协 作
predic tions</w>
p us
metho ds,</w>
emerg ency</w>
教育 和
影响 。</w>
success fully</w>
pati ent</w>
hydro gen</w>
ho use</w>
合 理
stud y,</w>
ho me</w>
物 的
此外 ，
ne ural</w>
ste ll
ment 's</w>
har d</w>
ch ild
信息 的
consu mer</w>
能力 和
广泛 的应用
体验 。</w>
pattern s,</w>
ha ving</w>
D ar
安全 的
， 即
能力 。</w>
v ac
se is
，这 对于
各 个
d ou
challeng es,</w>
科研 机构
pat ents</w>
enc ryp
descri ption</w>
au to
regul atory</w>
posi tive</w>
mi d
， 例如，
compan y's</w>
character ized</w>
识别 和
类 型
softw are
aff ected</w>
S te
系统 和
streng then</w>
measure ments</w>
技术 ，如
wa st
dom in
， 它们
str ong
sign al</w>
Goog le</w>
网络 攻击
我们的 生活
standar di
错 误
ou gh</w>
dens ity</w>
Wor l
2 ,</w>
步 骤
授 权
ther n</w>
lin ed</w>
效 益
引 力
shi f
量子 比特
和 优化
es tern</w>
acceler ating</w>
vi br
fe atu
ac y,</w>
的 效率
strength ening</w>
可以 使用
electro magnetic</w>
dep loy
atmosph ere</w>
H igh
意 味
super conduc
extre m
Ano ther</w>
多种 方式
，这 种
意味 着
tex t.</w>
gh t
encour aging</w>
视 觉
揭 示
ene w
Jo h
multi -
自己 的
produc ed</w>
1 ,</w>
背 景
pur pose</w>
T ra
形 式
wave leng
ag encies</w>
Stan dar
某 些
您 的
u r</w>
ob serve</w>
ev en
as ing</w>
E lec
A 's</w>
演 化
care er</w>
C ar
量子 力学
生物 科技
u e</w>
sate lli
val id
es tim
dec reas
cat aly
2 0</w>
精 度
分析 和
ver i
astronom ers</w>
特 殊
universe 's</w>
响 应
relation ships</w>
imple ment</w>
high- level</w>
f e</w>
te ach
I ts</w>
清洁 能源
减少 对
p ping</w>
7 0
的 关键
st res
H ere</w>
si zed</w>
accur ately</w>
pol y
me tal</w>
数据 科学
ing 's</w>
Shangh ai</w>
dem and</w>
suppor ted</w>
state ment</w>
demonstr ating</w>
al ize</w>
19 8
自然 语言
whe ther</w>
ut e</w>
countr y's</w>
D ig
C lo
安全 性
v es.</w>
speci alized</w>
驱 动
在 科技与研究
cros s-
abs or
gre en
人工智能 的
ple 's</w>
g ain
In formation</w>
显 示
主要 包括
大 气
wast e</w>
al loc
De part
远程 医疗
强 调
ex ternal</w>
p it
organis ms</w>
b in
硬 件
abili ties</w>
y s,</w>
proble m</w>
cri be</w>
B u
可以 根据
ac tively</w>
Inte llig
破 坏
sim ple</w>
adap t
ab le.</w>
说 明
le 's</w>
F or
注 意
去 中心
identi fied</w>
grou ps</w>
符 合
科技研究 在
sph er
semiconduc tor</w>
metho do
政策 制定
adv oc
ne w
mathematic al</w>
introduc ed</w>
si z
materi als.</w>
V R</w>
好 的
su ff
年 ，
protec ting</w>
pat tern</w>
G er
pres ented</w>
interac tive</w>
highligh ted</w>
dat ing</w>
Q u
适 合
的 ？</w>
r ing</w>
oper ate</w>
ligh t,</w>
有效 地
处理 和
ma p</w>
im plies</w>
g las
cu stom
challeng ing</w>
ce .</w>
ar s</w>
acceler ate</w>
Im ple
规 范
的 风险
them .</w>
har d
cit y's</w>
cap ital</w>
发 电
block chain</w>
， 其
精 神
telescop e</w>
extrem ely</w>
ad ,</w>
方 便
新 技术
sibili ties</w>
s o</w>
B e
，科技 与研究
secur ity.</w>
i on</w>
P er
p ,</w>
environ ments.</w>
P resid
有效 的
差 异
巨 大
在 于
r ing
projec ts,</w>
pl ying</w>
objec t</w>
C re
vol um
observ ation</w>
探测 器
cir cul
ad ministr
的影响 是
flexi ble</w>
e limin
监测 和
s po
require ments</w>
al 's</w>
的 情况
更 为
neg ative</w>
grav ity</w>
人 体
war ming</w>
use ful</w>
tu re
long er</w>
are as,</w>
相 对
simul ations</w>
5 G</w>
： 首先，
项目 的
of f</w>
la ter</w>
特 点
rea d</w>
class ical</w>
语 音
大数据和 云计算
ex trac
consist ent</w>
tal ents</w>
sens or</w>
sci ence.</w>
break through</w>
l ation</w>
ongo ing</w>
S im
思 维
es s.</w>
is h</w>
Co un
具有 重要
上 ，
v es
表 面
的 ，
there by</w>
ro r</w>
ing- edge</w>
cut t
app ear
P ol
Des cribe</w>
（ 如
ne uro
me ters</w>
capac ity</w>
b l
起 到了
propos es</w>
er y</w>
aver age</w>
adop tion</w>
我 国
regul ations</w>
re form</w>
man age</w>
T el
or ,</w>
dist ingu
as es.</w>
高 级
技术的 进步
refl ect</w>
mar k
m us
广泛 应用
ji ang</w>
ic ,</w>
da ily</w>
tra de</w>
me tric</w>
ch ed</w>
难 题
up d
resour ces.</w>
pos sibility</w>
din osaur
评 价
地 方
sec tors</w>
oper ations</w>
lo r</w>
demonstr ate</w>
pre p
开发 新的
tra vel</w>
th ir
S peci
的安全 性和
的 “
回 收
encour age</w>
In di
" The</w>
还 可以通过
vol can
r enew
br ing</w>
" ?</w>
Dig ital</w>
rel ativ
ga p</w>
f fic</w>
aim ed</w>
R N
A si
纠 缠
illu str
B ased</w>
1 5
部 门
直 观
和 生物
追 踪
迅 速
o .</w>
个人 信息
phys ici
和 使用
win d</w>
proper ties.</w>
integr ate</w>
challeng es.</w>
assi stan
值 得
accoun t
， 如何
教 授
des pite</w>
demonstra ted</w>
chemi str
A T
环境 污染
元 素
rou gh</w>
o logical</w>
monit or
c ate
an 's</w>
甚 至
dis aster</w>
Re g
） ：
机 械
re strial</w>
fossi ls</w>
具 备
ma xim
i sts</w>
fe deral</w>
e ver
av y</w>
ann u
form ing</w>
监 管
co de</w>
T ran
M O
效 应
tor s,</w>
th ri
j ob
G o
身份 验证
。 其中
ne arly</w>
0 .
非常 广泛
精确 地
的 新
transpar ency</w>
on s,</w>
att ack
J ap
， 您
mode ling</w>
friend ly</w>
Io T
政策 和
n ar
geo logical</w>
el l
an e</w>
ac cep
， 形成
thou gh</w>
J in
B ra
thou gh
m al
h or
econom y.</w>
di ver
demonstra tes</w>
基础 设施
conven tional</w>
reduc tion</w>
compan ies,</w>
方法 和
可以 利用
pre ven
es s,</w>
be coming</w>
S )</w>
速 度和
网络 科技
trans mission</w>
se t
ome n</w>
author ized</w>
e ding</w>
cutt ing-edge</w>
c loc
rel atively</w>
ra ys</w>
nes s,</w>
efficienc y.</w>
distan t</w>
advant age</w>
H ong</w>
tr ust</w>
por t</w>
er s'</w>
e very</w>
，以 提高
， 避免
请 总结
等 。这些
reli ance</w>
d ge</w>
connec tion</w>
Einste in's</w>
区块链 技术的
f l
concep ts</w>
M il
vide o</w>
ship ,</w>
on 's</w>
enterpris es.</w>
L H
， 保护
sp ir
se di
i um</w>
high- energy</w>
dise ase</w>
修 改
simul ation</w>
b an
addres ses</w>
inter est</w>
范围 内
。然而 ，
tiv ity,</w>
tis su
ri gh
distinc t</w>
a th
medicin e,</w>
im mer
guide lines</w>
日 常
reli ability</w>
lever age</w>
1 3
请 介绍一下
沉浸 式
努 力
ste p</w>
pol ar
mi t</w>
call ed</w>
更好地理解 和
地 理
动 态
per cent
partic les,</w>
gener ated</w>
的 作用
可 视
分布 式
不断 发展
s cre
lead s</w>
clo se</w>
re stric
di sp
defin i
压 力
pho ton
mechan ics</w>
，使 其
statis tical</w>
ph one</w>
iso top
培 育
sol ve</w>
r un
func tional</w>
comput ing,</w>
coll ected</w>
用 来
可能 的
tra ffic</w>
technolog y?</w>
有所 帮助
大数据和 人工智能
tr uc
thre e-
spe ec
lo so
k 's</w>
engineer ing,</w>
， 尤其
克 服
会 议
migr ation</w>
do c
asse mb
C )</w>
研究 中的
数 量
感 知
pi on
par ame
器 官
可能 导致
mi x
Earth .</w>
精确 的
常见 的
er t</w>
consum ption</w>
ch es</w>
) :</w>
，可以 帮助
科技研究 中的
spac e,</w>
prioriti ze</w>
avo id</w>
的 一
可能 性
sam ples</w>
支 撑
tion ing</w>
speci es.</w>
infra structure,</w>
addres sed</w>
a way</w>
regul ar</w>
occu r</w>
ch ro
Com mun
达 到
gui de</w>
at er
， 增强
ch im
rapid ly</w>
运 营
的 能源
数据 和
可以 更
to o</w>
mil est
easi er</w>
- like</w>
提出 了
扫 描
mi r
有何 影响？</w>
扩 展
system 's</w>
nano tu
G rou
可以 为
sp in</w>
wi des
ne ar</w>
man aging</w>
eng aging</w>
，如 果
起 源
往 往
model s,</w>
m ess
A t
航空 航天
u es</w>
ver s</w>
read y</w>
ent ang
r ati
energ y.</w>
earthqua ke</w>
an ces</w>
， 或者
的 高
tho us
impro vement</w>
chemi stry</w>
ST E
Ne w
manufactur ing,</w>
es cop
competi tion</w>
Tel escop
定 制
wides pre
poli tical</w>
结构 和
环境 的
充 分
phenomen a</w>
gen es</w>
sho ws</w>
Presid ent</w>
辐 射
制造 业
pre fer
1 4
至关 重要
智能 合约
和 人工智能
ul ation</w>
develop ment?</w>
医疗 健康
Sou th</w>
D uring</w>
sta y</w>
ne ur
n el
minim ize</w>
design ,</w>
con sci
面 对
组 成
等 方式
技术 也
re -
platform s,</w>
l .</w>
未来 发展
un ds</w>
si tes</w>
outcom es.</w>
indic ating</w>
cost -
Worl d</w>
O ff
基因 工程
创 作
vi sible</w>
scenari o
ex tr
author 's</w>
过程 中的
更好地 了解
st atu
ear li
compon ent</w>
be am</w>
ut ron</w>
ta ilo
clo ud
te st
streng th</w>
ac y.</w>
V i
进 程
和 其他
具体 的
proper ties,</w>
numer ous</w>
dron es</w>
武 器
loso ph
S mar
表 明
n ers</w>
g ri
damag e</w>
a di
电 动
tem p
or s.</w>
las t</w>
buil d
phys ic
C an
统 计
，并 且
教育 的
dru g</w>
cap it
an other</w>
1 2
只 是
社 区
sc an
pol ici
f lo
Ji ang
预 警
环境 中
治疗 方案
原 则
一 系列
现 有
度 。</w>
科技 伦理
碳 排放
挑战 。</w>
引 导
对环境 的
m erg
ch ron
at o
进 入
来 ，
基 金
海 洋
可以 推动
y uan</w>
universi ties</w>
模式 和
就业 机会
forec ast
d ust</w>
D is
科技 如何
挖 掘
tic s.</w>
expan ding</w>
de mo
d "</w>
cryst al</w>
valu es</w>
qu b
int ens
f av
a -
论 文
相互 作用
vi ol
ri c</w>
r ich</w>
fi es</w>
F in
widespre ad</w>
s y
renew able</w>
proble m
percent age</w>
believ es</w>
国际 合作
合 成
rele ase</w>
infra red</w>
i a</w>
com po
，同时 也
掌 握
resi li
ic k</w>
有 望
exhib it</w>
b atter
anim al</w>
S tu
能够 在
指 标
sugges ted</w>
s ou
region .</w>
manage ment.</w>
coun try</w>
awaren ess</w>
CRISPR -C
CRISPR-C as
产品 和服务
tro p
in tr
in st
引 入
recommen d
instru ments</w>
d on
效果 。</w>
Des pite</w>
Ad van
的安全 性
学生 的
sim pli
革 命
相 比
完 整
pre ce
me th
al ign</w>
规 律
sof t</w>
reac tion</w>
l ess
Depart ment</w>
开 展
一 定
li p
Mo re
I I
( P
， 因此
容 易
sol ving</w>
facilit ated</w>
behavior ,</w>
Ob serv
war f
ther ,</w>
s ke
nano technology</w>
ligh t.</w>
in de
火 箭
re ven
is ol
growth ,</w>
gre at
N an
发展 。</w>
par ts</w>
8 .</w>
tr end
f am
competi tiveness</w>
Spac e</w>
En erg
的发展 趋势
trac king</w>
entrepreneur ship</w>
empha sis</w>
hel ping</w>
cre di
bo son</w>
： 利用
z e
sour ces,</w>
机 遇
恶意 软件
带来 的
over ,</w>
ateri als</w>
Provi de</w>
re construc
ment ation</w>
l iter
inter ne
I B
等 ，这些
societ y</w>
p lo
cyc le</w>
ad ju
， 有助于
疫 苗
tu res</w>
treat ments</w>
ti es?</w>
bro ad
跟 踪
距 离
电 力
然 后
沟 通
utili zed</w>
so phi
sophi stic
ph y
inclu ded</w>
fre e
病 毒
技术， 我们可以
实际 应用
tra ve
speci es,</w>
ra tes</w>
Ne twor
E P
用 的
影 像
organiz ation</w>
easi ly</w>
a o</w>
5G 网络
资源 和
leader ship</w>
in cid
ever y
W a
at temp
文 本
work .</w>
techniqu es,</w>
suff ici
Th rough</w>
， 用于
运 输
自然语言 处理
research ers,</w>
pro mis
ag g
Guang d
G al
独 特
也 是一个
proce du
pi vo
cli mate
w are</w>
recogni zed</w>
phi losoph
enc y,</w>
S er
智能 手机
s mo
pro por
orig ins</w>
ec u
cogni tive</w>
co lor</w>
b es</w>
ac qui
High -
C am
Beij ing</w>
化 、
robo tics</w>
on e-
m ed</w>
职 业
力 量
esti al</w>
， 是
utili zing</w>
the tic</w>
tenti on</w>
qual ity,</w>
intellig ence,</w>
e missions</w>
循 环
w omen</w>
res ol
institu tions,</w>
c ent</w>
argu ment</w>
Earth ,</w>
中 扮演
on ic</w>
ex o
eo us
得 到了
tive ,</w>
d ur
al ed</w>
he li
More over,</w>
玩 家
radi o
Ex am
Au str
un g
t y.</w>
constan t</w>
Joh n</w>
车 辆
有 限
提 前
。这 样
st ore</w>
show c
great ly</w>
exp ec
emphasi zed</w>
con serv
Pro gra
药物 研发
soli d</w>
re plic
consider ations</w>
路 径
疗 法
s co
p al
mo ment
h ur
实时 监测
体 现
comm unities</w>
科技的 进步
在 科技
spectro scop
sci ll
hand le</w>
govern ments</w>
负面 影响
wea k
w as
green house</w>
behavior .</w>
在 推动
inter face</w>
clo sely</w>
E S
，从而 减少
them sel
reach ing</w>
me tal
high- resolution</w>
auth enti
ne ar
ator s,</w>
4 )</w>
predic ting</w>
emerg ence</w>
用户 体验
动 物
ro p
recei ved</w>
n atu
f ab
are as.</w>
E R
在 全球
人工智能 、
tic ally</w>
observ ing</w>
ing ly</w>
H um
volcan ic</w>
oper ating</w>
le r</w>
healthcare ,</w>
bio diversity</w>
b ase</w>
( e
projec ts.</w>
opport uni
ide al</w>
es '</w>
I ni
界 面
sam ple</w>
econom y,</w>
遵 守
答案 :</w>
有 可能
pos sib
identi fication</w>
concer n
pa th
au r</w>
试 验
li st</w>
ig n
C or
ne utron</w>
ence ?</w>
e mo
Standar d</w>
A R</w>
polic y
G D
1 7
防 护
的 决策
产生了深远 的影响
utili ze</w>
stell ar</w>
res on
her it
altitu de</w>
agricul tural</w>
S i
答案： 科技在
al ready</w>
G overn
m ut
in .</w>
cel estial</w>
ass ess</w>
的 性能
扩 大
商 务
to da
ar ity</w>
Antar ctic</w>
wat er,</w>
te e</w>
s qu
identi ty</w>
co u
ap ply</w>
D o
( N
产业 链
tem por
p s.</w>
func tions</w>
charg e</w>
b acter
支 付
sel f</w>
at s</w>
I M
partici pan
Sec ur
。 他们
ra d
ma m
20 20
装 备
严 格
lo s
independ ent</w>
fac tor</w>
car ri
A n</w>
度 的
多 方面的
re cover
mem ory</w>
k -
electr ic
S econ
Chin a.</w>
转 换
系统 ，
测 序
数 学
农作物 的
一 项
t a</w>
simul ate</w>
produc ts,</w>
pro p
n on
indic ates</w>
con f
性 ：
大大 提高了
国 防
set ting</w>
p ass
man ag
enhan ces</w>
L o
注 重
communic ation,</w>
com posi
N ano
规 定
替 代
threat s</w>
smar t
r in
ment ally</w>
der ing</w>
degre e</w>
att ribu
I P</w>
时 代
力 于
un ity</w>
introduc tion</w>
comb ining</w>
collabor ation,</w>
P e
. g
原 因
model ,</w>
c tu
be am
Ti bet
1 6
信 任
Hu a
star s,</w>
so il</w>
，我们 需要
致 力于
invol ving</w>
hel d</w>
fu sion</w>
dise ases</w>
So ci
R us
Indu strial</w>
将 会
至关 重要的作用
是 通过
y uan
spac e.</w>
log y.</w>
是 指
transpor tation</w>
employe es</w>
(e .g
问题 。
的 科研
tan eous
se min
gl aci
em br
储 存
cool ing</w>
无人 驾驶
sensi tivity</w>
** ：
更深入 地
reas ons</w>
pri mar
jo int</w>
inves ting</w>
he avy</w>
def ense</w>
平 等
i ,</w>
Ini ti
氧 化
备 份
t ing,</w>
fu el</w>
co -
at h</w>
ap plying</w>
H ar
3 0</w>
来 提高
力 的
rais es</w>
重大 突破
生 长
如何 通过
化石燃料 的依赖
个人 隐私
与 其他
temperatu re,</w>
substan tial</w>
re view
ga ther</w>
extinc tion</w>
experi ence.</w>
Sta tes</w>
天 气
se am
Fo und
( 2)</w>
u su
pivo tal</w>
electron ics</w>
C T
发 明
光 学
rel ess</w>
fi sh
analysi s.</w>
A N
必 须
以下几 个
prece d
ful l</w>
和 智能
inter disciplinary</w>
even tually</w>
M on
整 体
re pe
primar ily</w>
inc ub
b b
，这 将
当然可以 。
度 、
worl d,</w>
policy mak
integr ity</w>
encour ages</w>
Smar t</w>
( 1)</w>
者 的
人 力
mete or
ground breaking</w>
V ir
Nor th</w>
CRISPR-Cas 9
可视 化
si x</w>
sec re
scienti st</w>
pre servation</w>
fa ir</w>
environ ments,</w>
contribu tion</w>
最 大
引 领
在 未来
以下几 点
sam pl
n it
aim ing</w>
** :</w>
影响 。首先，
。再者 ，
struc tural</w>
selec tion</w>
g et
ex ist</w>
adap tation</w>
数据 进行
wide ly</w>
cri tici
annu al</w>
5 ,</w>
入 侵
以上 就是
seis mic</w>
ed iting</w>
天 体
作 品
sec tion</w>
ha z
Ar ctic</w>
而 言
sa fe</w>
m yst
g lu
覆 盖
虚拟现实 技术在
社会 的
平台 ，
sk ill
pi lo
al th</w>
整 合
foo t
。再 次
sp i
，以 下
困 难
increas es</w>
effor t</w>
Ro bo
辅 助
广 阔
pres su
oo l</w>
nano particles</w>
cle an
家 庭
处 于
out lined</w>
attrac ting</w>
adv ance</w>
C ong
地 震
pro found</w>
ph on
be l</w>
必 要
发 布
医疗 设备
tr end</w>
through out</w>
sub jec
repres ents</w>
fac t</w>
estim ate</w>
autom ation</w>
S in
申 请
under stan
serv ed</w>
lay ers</w>
fe ature</w>
pollu tion</w>
p ic
di tion</w>
编 程
科技研究 对
智能 机器人
的发展 。</w>
反 映
plas ma</w>
navig ate</w>
inf ring
facili ties</w>
clust ers</w>
S ur
O r
都 有
材料 和
popul ations</w>
labor ator
facilit ates</w>
effor ts.</w>
M in
近 年
t ac
reduc es</w>
line ar</w>
d den</w>
b and</w>
exp and</w>
e ous</w>
。其次，科技 也
un authorized</w>
medi ate</w>
ag es,</w>
中 小
provin ce</w>
produc ing</w>
cop y
con s
G eo
电子 商务
有哪些 ？</w>
合 适
skil led</w>
high- speed</w>
被 广泛
worl d
wh o
ilit y,</w>
corpor ate</w>
配 置
的 出现
生物 多样
。其次 ，科技研究
tin y</w>
os aur</w>
温室 气体
发挥了 重要作用
s es,</w>
p ha
ca uses</w>
En vi
Con si
深 化
最 佳
措施 来
布 局
下 的
us ter</w>
pur pos
g ap
的 研发
ve .</w>
reac tions</w>
astronom ical</w>
C C
离 子
参 数
ter r
inste ad</w>
f ast</w>
ast ero
虽 然
实 例
fa ul
con stra
U se</w>
节 能
team s</w>
re main</w>
快速 发展
pla in</w>
pat h</w>
contro l,</w>
a k</w>
Ch ang
成 就
oth ers</w>
i el
di vers
cri min
Envi ron
自动驾驶 汽车
太阳能 、
ve -
scienti sts,</w>
par alle
i ties</w>
conf lic
c tic
buil t</w>
bio technology</w>
bal an
G ener
， 在
挑战 和
serv es</w>
mo tiv
matter .</w>
flu ctu
comp ati
Tec h</w>
量子 纠缠
重 复
通 讯
occur s</w>
no table</w>
ment ing</w>
col le
疫 情
Univers ity,</w>
智慧 城市
具有重要 意义
wea k</w>
tal ent,</w>
g o</w>
em it
b om
Hua we
重 视
ro t
be comes</w>
， 你
随 时
实现 了
revolution ized</w>
practic es.</w>
en force
集 中
质量 。</w>
确 实
wr it
ultra -
telescop es</w>
sens ing</w>
investig ate</w>
int ended</w>
incorpor ating</w>
bio logy</w>
电 脑
物 流
成为 可能
和 挑战
加 大
ment s?</w>
ga ther
form ul
ent ly,</w>
eco systems</w>
流 动
国 内
y c
sion s,</w>
的 理解
文 章
太阳能 和
可能会 导致
th in</w>
instru ment</w>
indic ate</w>
an ds</w>
了 哪些
worl d's</w>
wh ite</w>
conven i
contra st</w>
S h
B ay</w>
认 识
日常 生活
世 纪
high- end</w>
activi ties.</w>
G ra
激 励
两 个
pan de
le ast</w>
go od</w>
ch ann
ac cum
" .</w>
， 企业
微 生物
sc atter
mainten ance</w>
argu e</w>
Th ere</w>
： 科技
知识 和
样 的
e mission
O n</w>
Mil ky</w>
框 架
异 常
如何 在
和 大数据
S il
资金 支持
安全 和
wa ys.</w>
w al
um .</w>
metho ds.</w>
immer sive</w>
continu ously</w>
coll ap
ate .</w>
Ri ver</w>
延 迟
射 线
partic les.</w>
ho pe</w>
A )</w>
你 的
um- sized</w>
the tical</w>
matter ,</w>
equip ped</w>
communic ate</w>
co ast
St ate</w>
8 0
。此外，科技 还
sh el
reflec ts</w>
re plac
pol ar</w>
b lo
设 立
sm all
sho wn</w>
o scill
improve ments</w>
assi st</w>
V alle
看 到
recor ds</w>
pl ant</w>
out put</w>
ob ser
L arg
Engine ering</w>
B ri
recei ve</w>
li br
high light</w>
he ad</w>
Inter ne
行业 的
sw it
show ed</w>
a in</w>
，这 是
tiv ity.</w>
statu s</w>
k ing,</w>
gre at</w>
过 度
更 快
z ation,</w>
pan ze
dep th</w>
adap ted</w>
Fir st
weap ons</w>
war m
transpar ent</w>
st .</w>
preven ting</w>
oper ations.</w>
mon o
develop ments</w>
center s</w>
ar rang
am es</w>
C ity</w>
Ac t</w>
。 如果
work ers</w>
reve al</w>
marke t.</w>
insp ired</w>
continu ed</w>
， 随着
非常 重要的
接 触
” 的
st ac
cont amin
chim panze
in duc
du ci
cr it
commun ity.</w>
STE M</w>
SME s</w>
hypo thes
ex ecu
b el
No bel</w>
L i</w>
Advan ced</w>
利 益
silic on</w>
de .</w>
适 当
太阳能、 风能
on s.</w>
clas s</w>
治疗 方法
月 球
力 和
year ,</w>
min er
determin ing</w>
cap ability</w>
Po tenti
院 士
un d,</w>
sp read</w>
s low
inv ention</w>
govern ment's</w>
activi ties,</w>
us .</w>
rel ative</w>
n ation
h und
gi ant</w>
遗传 性
科技 的研究
技术 创新
例子 ：</w>
pi ec
ori es,</w>
guid ance</w>
领域的 研究
需求 和
保 健
仪 器
shap ed</w>
limi t</w>
level s,</w>
sophistic ated</w>
pos sibilities</w>
occur red</w>
emphasi zing</w>
effective ly.</w>
Labor atory</w>
， 进一步
改 良
抗 病
制 度
依 据
reve aled</w>
profession als</w>
ex ce
deli ver
controll ing</w>
communic ations</w>
chang ed</w>
Ke y</w>
其 在
inter ven
B el
An aly
展 现
tri gg
su s</w>
qu ali
predic ted</w>
p .</w>
concentr ation</w>
c au
alo g
G e
太阳能和 风能
earthqu ak
更 高效
基础 研究
。通过 使用
to po
The ir</w>
更准确 的
提供了 更多的
才 能
多 元
为 什么
zh en</w>
robo tic</w>
pion e
opport unity</w>
fi sh</w>
en ting</w>
en ,</w>
Cong res
周 期
show ing</w>
medi um-sized</w>
he avi
b illi
Potenti al</w>
时间 和
提供 一些
ter ,</w>
sph ere</w>
log is
detec ted</w>
M ini
防 火
蛋 白
第 一
变 革
协 议
使 我们能够
wi reless</w>
s m</w>
refer ence</w>
fu ture.</w>
ative ,</w>
ar cha
VR ）
F u
Col labor
销 售
节 省
为 我们
optimi zation</w>
loc ated</w>
in es</w>
hypo thetical</w>
bio logy,</w>
- to-
拥 有
发现 和
requ iring</w>
dec line</w>
cate gor
aliz ing</w>
P aci
虚拟现实 （
结构 的
来 自
材料 科学
情 报
surfac e.</w>
resul ts.</w>
consum p
competi tiven
， 对于
。 它们
tr al</w>
real istic</w>
predic tive</w>
chain ,</w>
Elec tr
( 3)</w>
， 他们
， 不
不断 进步
ro w
ra se</w>
fra g
cr yp
a o
Indu stry</w>
电 路
gr an
chi p</w>
癌 症
发 射
光 子
uncertain ty</w>
practic es,</w>
intens ity</w>
e mission</w>
di oxide</w>
der s,</w>
d ing,</w>
Y ang
最新 研究
thre at</w>
supernov a
p tions</w>
ho ur
galax ies,</w>
bu dg
( E
， 甚至
视 角
tu i
sector ,</w>
compar is
com pli
First ly,</w>
E con
重要 性
太阳能 电池
perform ance.</w>
des truc
d s?</w>
tra in
combin ed</w>
Z he
G lob
Fac e
l ate</w>
diag ra
d es,</w>
。 具体
power ed</w>
op ini
instru mental</w>
D el
2 5
科学 研究的
的发展 ，
对 您
tak es</w>
sens ors,</w>
ro les</w>
Shen zhen</w>
Mode l</w>
I S</w>
防火 墙
未 经
有 关
u s,</w>
provin cial</w>
p ain
Reg ul
， 防止
需要 考虑
环保 的
scenari os</w>
re port
re d
e t,</w>
dron e</w>
crit eri
Austr ali
v ar
percep tion</w>
al e</w>
Ser v
Clo ud</w>
难 以
科技与研究 在
流 量
产生 的
、 水
hol d</w>
collabor ate</w>
bodi es</w>
structu res,</w>
st ages</w>
prote in</w>
in sul
S am
( M
领 先
分 辨
zh ou
research er</w>
it y's</w>
detec tor</w>
dedic ated</w>
at ,</w>
Mac hin
M S</w>
Energ y</w>
暗 物质
trans mit
st age</w>
sec u
sa v
hand ling</w>
dra w
cultiv ation</w>
Ex plain</w>
开发 和
地区 的
。因此 ，科技
uni fied</w>
per f
en ough</w>
an s,</w>
Rus si
所 述
尊 重
tw o-
strategi es.</w>
human -
ex cep
dis ast
C ali
统 一
植 物
政策 的
公 开
out side</w>
ment :</w>
innov ation
collec tive</w>
appro pri
限 于
生态 系统
技术 可以帮助
严 重
tion :</w>
produc ts.</w>
pa ir
model s.</w>
hu b</w>
encryp tion</w>
develo per
comm uni
collec ting</w>
bio medical</w>
、 生物
vari ab
us er-
societ al</w>
ref er</w>
lea der</w>
eco system.</w>
A g
更 高效的
咨 询
值得 关注
作用 。</w>
tailo red</w>
t age</w>
pro s
planet 's</w>
i es?</w>
el der
联 系
fab ric
connec tions</w>
Su n</w>
继 续
引 进
entrepreneur s</w>
der i
Speci fic
H a
授权 的
成 像
fe a
cre ates</w>
温室气体 排放
医学 研究
trans form</w>
s how</w>
networ ks,</w>
medic ine</w>
li ke
impac ted</w>
ex act</w>
en tr
deb ate</w>
chemistr y,</w>
L A
1 1
权 益
心理 学
巨大的 潜力
和 信息
velo city</w>
mem bers</w>
in tui
cre ativ
Larg e</w>
projec t.</w>
preced ented</w>
acqui si
Pro ject</w>
un precedented</w>
tain ed</w>
abo ve</w>
Scienti sts</w>
3 -
无 线
关 联
re vi
rad ar</w>
i 's</w>
bound aries</w>
Exam ples</w>
Ch eng
(e.g .,</w>
th or
resul t,</w>
prin t</w>
f ast
dis order
di c</w>
y iel
ll ing</w>
i ons</w>
gradu ate</w>
fun ds</w>
R ob
运 用
societ y.</w>
separ ate</w>
l ens
in spec
也 会
thin king</w>
of -
l en
期 待
完 全
reli gi
partner ships</w>
ho t</w>
enhan ce
Sci ences</w>
虚拟现实（ VR）
的 "
电动 汽车
打 造
助 手
emp lo
conver sion</w>
ate d,</w>
Op en</w>
sum mar
p sy
algorith m</w>
产业 的
、 高
volum e</w>
propos al</w>
en g</w>
cost s,</w>
除 了
目 的
旅 行
和 物联网
ri g
r ural</w>
initi ativ
ex pos
dec ad
ang ,</w>
ad o
综 上
speec h</w>
represent ation</w>
on al</w>
I t's</w>
请 问
的 基本
智能家居 系统
suffici ent</w>
recogni zing</w>
nor mal</w>
dise a
an y
逐 渐
rul es</w>
promis ing</w>
he ad
analy tics</w>
als ?</w>
Specific ally,</w>
Com p
认 知
在线 教育
simul taneous
nes s.</w>
观 点
有 几个
农 田
习 惯
tor s.</w>
ri t</w>
o il</w>
marke t,</w>
D avi
9 0
no ise</w>
connec t</w>
c ali
add ed</w>
可以 实现
包 含
。首先， 通过
ti l
physici sts</w>
hal f</w>
h on
fail u
超 过
森 林
最后 ，
及 其
invest ments</w>
countri es,</w>
7 ,</w>
新兴 科技
open -
hypo thesis</w>
ex cell
evol ving</w>
W e</w>
C enter
自 由
综上 所述
气 象
出 了
thous ands</w>
re forms</w>
l ining</w>
ex c
deli very</w>
cl uster</w>
assess ment</w>
aliz ation,</w>
Develo ping</w>
C D
，可以 通过
还 可以帮助
虫 害
以下几 种
use ,</w>
le ment</w>
inv est</w>
网 站
transpor t</w>
startu ps</w>
sion s.</w>
pursu e</w>
ob stac
achieve ment</w>
生活 方式
commerci alization</w>
Sin ce</w>
Di rec
，特别 是
资金 来源
最新 进展
reven ue</w>
ph ar
increas ingly</w>
go o
effici ently</w>
coordin ation</w>
ac tual</w>
透明 度
在 科研
war ning</w>
t ack
inst all
distribu ted</w>
C ur
3 ,</w>
进行 了
贡献 。</w>
算法 和
t ab
sh ed</w>
sector .</w>
se d,</w>
produc tion,</w>
ic h
er a</w>
eng agement</w>
dis play</w>
de gra
atmospher e,</w>
" S
科技在 医疗
支持 。</w>
技术 可以用于
transpor t
machin es</w>
glas s</w>
all y.</w>
ag o,</w>
无 需
交流 和
、 数据
year .</w>
t ou
region ,</w>
flu id</w>
Su per
pre par
p ast
approach ,</w>
货 币
你 认为
中小 企业
un c
sh e</w>
resistan ce</w>
pro mi
particip ate</w>
orb it</w>
ment ary</w>
m p
f f</w>
能源 消耗
合适 的
bo tt
，实现 了
nano scale</w>
journ al</w>
found ational</w>
T ai
In ste
的 建设
、 医疗
st s.</w>
prin ting</w>
pres ent
predic tion</w>
gu ar
con fer
W ang</w>
Un der
遵 循
theor y.</w>
per cei
j ur
inv ent
for ni
defini tion</w>
cou pl
I D</w>
领域 中，
芯 片
尽 管
significan t,</w>
no tes</w>
need s.</w>
le t
fo ur
ent al</w>
） 和
追 溯
滥 用
和 教育
to x
re tur
mem ber</w>
leg is
i ron</w>
bri dge</w>
artic le.</w>
( D
文 明
和 环境
wor ds</w>
ta x
surve y</w>
demonstr ation</w>
custo mi
cell s,</w>
an -
后 ，
repres ent</w>
mel ting</w>
human s.</w>
as h
am pli
P at
更 高的
particip ation</w>
off ici
n anom
enti ties</w>
contra dic
bec ame</w>
Ti an
O S
轨 道
ur g
rele ased</w>
lic ens
l y
it y:</w>
ho od</w>
f rac
e ma
din osaur</w>
consci ous
pos ite</w>
exten sive</w>
electron ics,</w>
affec ting</w>
灌 溉
全 国
thir d</w>
rec ru
pilo t</w>
ele ment</w>
administr ative</w>
和 自动化
准确 性
fic ation,</w>
f em
Antar ctic
自 身
科学 的
信息 学
si c</w>
particul ar</w>
cont act</w>
50 0</w>
转 变
只 有
你 能
v ital</w>
pla ying</w>
bo son
air cra
( A
minim izing</w>
dig it
co her
c k</w>
W u
W estern</w>
C A
和 水
中 起着
s ;</w>
rea m</w>
moder ni
li ves</w>
i m</w>
av en
anim als</w>
商业 化
o zone</w>
k ilo
ag enci
X i</w>
M )</w>
Glob al</w>
Des ign</w>
，帮助 我们
减 轻
v ent
tion "</w>
person nel</w>
perio d,</w>
n ur
micro wave</w>
measu red</w>
envi sion</w>
cle an</w>
Phys ics</w>
科技研究 成果
检测 和
包括 ：
分辨 率
system s?</w>
prac tice</w>
ori ent
i ted</w>
al ter
科学家 可以
最 终
re a</w>
preci pit
ligh t-
larg est</w>
ev ents,</w>
er ror</w>
能源 的
提供 个性化的
trans fer
tici p
si l
posi tions</w>
cer ti
LE D
H om
E duc
Cali forni
5G 技术
or .</w>
b lu
T im
( AI
， 人工智能
青 年
的 同时
健康 状况
li ve</w>
authenti c
S O
Mar s</w>
金 属
物联网 设备
未来 趋势
提升 了
决 定
交 叉
丰富 的
spi rit</w>
siz e,</w>
pattern s.</w>
monitor ing,</w>
issu es.</w>
gener ating</w>
do ing</w>
barri ers</w>
b re
Mini stry</w>
Ap ple</w>
极 端
有 利
loo k</w>
knowledg e,</w>
graph ene</w>
data sets</w>
cho ol
，以 减少
规 则
政策和 法规
w ear
scan ning</w>
n ing.</w>
gi ving</w>
en ed</w>
叠 加
北 京
system ?</w>
e ting</w>
L in
2 1
经 费
环境 变化
干 扰
品 牌
win do
w it
rais ed</w>
evalu ate</w>
equip ment,</w>
do main
b s</w>
ac knowledg
E st
请 列
日 益
影响 力
定 义
val ent</w>
top ics</w>
syn thes
poly mer</w>
it self</w>
er o</w>
determin ed</w>
Paci fic</w>
应用 ？</w>
吸 收
pa y
m atic</w>
ch ec
al ity,</w>
，以下 是一些
， 及时
黑客 攻击
旅 游
区块链 技术可以
technolog y-
s atis
partner ship</w>
n 't</w>
brea k</w>
at tention</w>
archa eo
领域 的发展
采 集
航天 科技
物 体
搜 索
w o
re in
pus h
protec tion,</w>
promo tes</w>
inten se</w>
ev ents.</w>
degre es</w>
col d</w>
ba sis</w>
，这 一
， 与
高 科技
正在 改变
包括 ：</w>
允 许
ve d.</w>
re form
it tle</w>
han g</w>
entrepreneur ial</w>
ele v
ces s</w>
， 导致
物 种
和 企业
landscap e</w>
d le</w>
C y
se -
dou b
as p
analy zed</w>
O ce
质 的
虚拟现实 游戏
分享 一些
surfac e,</w>
s low</w>
rati o</w>
produc tivity</w>
materi al,</w>
haz ar
大 脑
全 新的
使用 的
上 海
to o
mod ul
interes ts</w>
cri p
chem ic
P ub
， 利用
非常 重要
资 料
联 合
监 督
光 谱
三 维
software ,</w>
see king</w>
rou ght</w>
mac eu
deploy ment</w>
acceler ation</w>
Com pan
另 一个
农 药
progra m,</w>
p h</w>
or ity</w>
at ten
C ha
， 鼓励
， 未来
产生 深远
。首先， 它
tion s?</w>
it y
describ es</w>
d enti
commun ity,</w>
ar ,</w>
C I
， 优化
康 复
地 质
中国 的
个 体
tim el
rel ying</w>
Y ear</w>
MR I
8 ,</w>
19 7
的 能力
wi der</w>
stud ent</w>
scal e,</w>
rais e</w>
n uan
er s?</w>
bro ad</w>
beg an</w>
ag o.</w>
CO 2</w>
适 用于
经 典
损 失
令 人
pl ate</w>
ma tes</w>
issu es,</w>
er up
d ly,</w>
Secur ity</w>
系统 、
检 查
transform ing</w>
suppor t,</w>
sh ing</w>
pho tons</w>
interfac es</w>
can di
New ton
F T
A ,</w>
20 0</w>
科技在 教育
的 稳定
更加 高效
exhi bi
，可以 提高
遗传性 疾病
废 弃
super conducting</w>
level s.</w>
k i
histor y,</w>
fi x
employ ment</w>
dis semin
S a
D )</w>
清 晰
期 刊
有 价值
对您 有所帮助
st y
projec t's</w>
perform ance,</w>
mam m
ligh t
k es</w>
ance r</w>
S pec
，促进 了
， 推动了
的重要 性
人工智能 （
二 氧化
ori ented</w>
e as
datab ase</w>
citiz ens</w>
a id</w>
Pri ze</w>
评估 和
证 明
经济 效益
单 位
z hen
navig ation</w>
b ble</w>
购 买
生物 工程
欺 诈
审 查
可能会 对
。 而
camer a</w>
abs orb
Ch ri
分析 大量的
产量 和
th us</w>
star s.</w>
reas on
objec tiv
manipul ate</w>
fav or
di stor
ar ise</w>
S tra
F er
请描述 一下
能源 效率
wr iting</w>
ta il
recommend ations</w>
itu de</w>
fac ility</w>
cre ative</w>
coast al</w>
avail ability</w>
ari ties</w>
an th
调 查
设 置
的研究 成果
生产 成本
安 装
solu tions.</w>
roc ks</w>
radi ation,</w>
oper ations,</w>
milli ons</w>
me ,</w>
j ud
f ing
ent ly.</w>
环 节
来 进行
sustain ability</w>
sp in
sig ns</w>
ship .</w>
on to</w>
me an</w>
le t</w>
fa ir
docu ment</w>
believ ed</w>
adap tive</w>
趋势 和
良 好的
科技 公司
数据 隐私
可能 需要
pho ton</w>
le y</w>
i or</w>
-- -
，以 实现
问题 ？</w>
ter s,</w>
team ,</w>
lead ers</w>
al location</w>
边 缘
的准确 性和
和 学习
和 存储
可 信
te 's</w>
respon ding</w>
6 0</w>
， 使用
大量 数据
st one</w>
proces s?</w>
lan d,</w>
F ran
Est abli
Coun ci
，减少 了
领 导
足 够
精准 农业
。这 包括
vari ety</w>
tool s,</w>
so le
roc k</w>
need s,</w>
gui ding</w>
f al
decision s.</w>
L ast
和 工作
医 药
th ing</w>
sever e</w>
psy cho
fac ing</w>
exp end
chang es,</w>
B er
（ AR
领域 有哪些
逼 真
标 志
无 论
企业 和
也 可以
r are</w>
par ty</w>
fil m</w>
compan ies.</w>
ade qu
R ic
Provin ce</w>
Pri v
的 普及
的 变化
法律 法规
可靠 性
之 前
themsel ves</w>
cryst als</w>
T E
诊断 疾病
节 点
艺术 家
的 时间
su sp
proble ms.</w>
pre serving</w>
ple .</w>
op tim
认 证
re n</w>
proto co
m im
insi de</w>
g ur
an sw
Syste m</w>
Grou p</w>
科技成果 的
市场 需求
和 方法
不 平等
region 's</w>
reach ed</w>
process ing,</w>
j us
hur ric
acade mi
高 度
的 基因
可持续 性
tru e</w>
teach ing</w>
level .</w>
energ y-
decreas e</w>
第 三
ro ad
o mi
k now</w>
job s</w>
inc re
defin ed</w>
def ec
countri es.</w>
ast er
+ --------
环境 和
供应链 管理
也 将
upgra ding</w>
recogni ze</w>
leng th</w>
gradu al</w>
fac ial</w>
experi ment,</w>
colle ag
的 过程
不 会
一 代
st er
sch ol
h app
bi ases</w>
Last ly,</w>
， 不仅
引 起
。这 将
human s,</w>
graph y,</w>
earli er</w>
% .</w>
，科技 创新
识别 、
舒 适
的 人
环境 。</w>
和 控制
体 制
roo m</w>
fu el
f all
confid ence</w>
a z
M S
， 研究人员
重要的 角色
vac u
te ly</w>
suppor tive</w>
cor al</w>
O ver</w>
， 旨在
资 产
种 植
层 次
top -
ong -
mem or
lear ning,</w>
fac es</w>
S he</w>
5 %</w>
行为 和
中 ,
ther .</w>
sub sequ
sing le-
si ve,</w>
mar k</w>
ke ep</w>
f el
Telescop e</w>
P l
Ar ti
深 圳
教育 资源
loc ations</w>
hard ware</w>
g et</w>
anom al
爆 炸
探 讨
fa mi
en sive</w>
Z one</w>
Pro jec
也 为
。 还有
var ying</w>
prev ention</w>
over view</w>
S hand
， 预测
高质量 发展
要 素
universi ties,</w>
temperatu res,</w>
strong er</w>
seam less</w>
paper s</w>
loo king</w>
incorpor ate</w>
ho o
ac ous
6 ,</w>
遇 到
电 磁
更加 便捷
整 个
对环境 的影响
可以帮助 医生
state -
s li
on to
level ,</w>
S en
， 进行
工 艺
塑 料
关键 作用
免 受
use .</w>
rou gh
mean ing
is m,</w>
fund ed</w>
ater restrial</w>
Tran s
Inste ad,</w>
Davi d</w>
部 署
网络安全 专家
忽 视
伙 伴
仍 然
。其次， 通过
mean ing</w>
galax ies.</w>
expos ure</w>
Al though</w>
2 4
--- +</w>
( G
神经 网络
生 存
序 列
传 递
v ap
strategi es,</w>
re put
govern ment,</w>
experi enced</w>
equ ation</w>
distingu ish</w>
bi om
appropri ate</w>
ag es.</w>
安全 、
大 型
传感器 和
人 民
innov ation?</w>
incenti ves</w>
hab itable</w>
equ al</w>
ep ing</w>
alig ns</w>
B ang</w>
19 5
, 并
飞 机
工作 者
发挥 重要作用
全球 气候变化
vehic les</w>
reve aling</w>
platform s.</w>
phar maceu
n am
infra structure.</w>
health ,</w>
ch ,</w>
E T
Ch ong
% ,</w>
领域 中的
购 物
技术的 研究
强 大
y et</w>
pos it
inclu sive</w>
claim s</w>
bene ficial</w>
agre e
的 基础
的 一些
来 实现
基因组 学
人工智能（ AI
refin e</w>
plan ning,</w>
d ing.</w>
an i
al ys
首 次
程度 上
科技 人才
vari ations</w>
pres ents</w>
be i</w>
Scienti fic</w>
H en
科研 项目
展示 了
云计算 和大数据
。 为了
mis sion,</w>
con tex
b ol
Machin e</w>
Gre at</w>
Di strict</w>
C P
科技成果 转化
数据 库
在科技研究 中的
safe ty,</w>
move ments</w>
in sec
in s,</w>
c y</w>
Pro tec
L t
< 当然可以。
都 能
途 径
可能 性。</w>
体现 了
。 他
promo tion</w>
objec ts,</w>
demo cr
anti -
解决方案 。</w>
等 方面的
等 技术，
对 人类
expla ins</w>
expla ined</w>
chang es.</w>
bri ght
auto mated</w>
N i
称 为
科技 发展的
time -
sector s.</w>
s es.</w>
pow er,</w>
effor ts,</w>
cryp to
Com mit
A rea</w>
： 使用
正 常
创造 出
te sts</w>
syn thesis</w>
over se
le ft</w>
err ors</w>
2 -
适当 的
s ),</w>
p en
objec tive</w>
m ate</w>
high est</w>
con ci
compar ing</w>
Shangh ai
P lat
病 人的
互 联
year -
integra tes</w>
im plic
cam pa
GP S
高 端
满 意
对 经济
transform ed</w>
particip ating</w>
extr aterrestrial</w>
doc tor
E ast</w>
B a
转 移
的 结合
制 作
se n</w>
se g
regul ation</w>
ex clu
contro l
collabor ations</w>
Vir tual</w>
Inte gr
As soci
能够 更
环境 监测
可能 存在
upd ated</w>
neur ons</w>
ic on</w>
con sul
blo od</w>
activ ity,</w>
的 形成
数字 经济
广泛 的
可以 减少
。首先 ，科技研究
。 总之，
son 's</w>
shor t-
participan ts</w>
ong ,</w>
measure s,</w>
direc tions</w>
d ing
calcul ate</w>
an ticip
Imple menting</w>
En ter
侵 犯
不 足
work ed</w>
stru gg
mir r
ma pping</w>
invol vement</w>
in put</w>
en try</w>
detec tors</w>
cover ed</w>
advan ces</w>
E E
Co .,</w>
意 见
survi val</w>
strength s</w>
standar ds,</w>
qu ir
p al</w>
nuan ced</w>
moment um</w>
M i
GP S</w>
，从而 推动
模型 的
un usu
ro om
polici es,</w>
me eting</w>
it y"</w>
histor y.</w>
cell ular</w>
ato m</w>
V ID
H i
C ,</w>
相对 论
带 动
实时 监控
专 注
、 人工智能
th .</w>
re turn</w>
ran dom</w>
priv acy,</w>
on e,</w>
exper t</w>
astronom y</w>
S tr
Man agement</w>
需要 大量的
提供 更好的
存储 和
发挥着 重要作用
保护 和
tor ,</w>
on ce</w>
atic ally</w>
C har
19 6
高 校
紧 密
未经 授权的
有 害
更 大的
思 考
和 高效
techniqu es.</w>
sur g
sub ject</w>
neutrin os</w>
l or
inv a
depart ments</w>
budg et</w>
att acks</w>
X -
Intellig ent</w>
Com pu
， 主要
高 新技术
重 新
等 问题
病 人
敏感 信息
re tain</w>
problem -
po st
planet s,</w>
lo ad</w>
invest ment,</w>
interpre tation</w>
graph ical</w>
expan ded</w>
eco systems.</w>
c ancer</w>
ad just</w>
Labor ator
Chin a?</w>
A t</w>
5 .
的 网络
来 解决
有 机
更 高
数据 泄露
将 更加
对 象
和 研究的
ver te
tim ely</w>
laun ched</w>
dis per
con ference</w>
和 产业
临 床
qu as
pro active</w>
flexi bility</w>
employ ed</w>
econ omi
dinosaur s</w>
copy right</w>
那 么
突 出
性能 和
。这 项
ti ous</w>
lin k</w>
gen om
data se
En han
障 碍
问题 ：
自 我
医疗 保健
universe ?</w>
trend s,</w>
t ze</w>
stakehol ders</w>
n an
al ways</w>
Yang tze</w>
T al
Shen zhen
间 的
过 去
研究 方向
强 度
un cover</w>
tr ying</w>
three- dimensional</w>
platform ,</w>
ligh ting</w>
favor able</w>
bir d</w>
Chong q
- related</w>
的情况 下
的 具体
基因 测序
we ight</w>
ti l</w>
she et</w>
respon sibility</w>
reflec ting</w>
p p
molecul es,</w>
inter est
gi ve</w>
ex plic
at ur
af for
Col li
答案：< 在
生 动
threat s.</w>
perio d.</w>
p ped</w>
loc k
la b</w>
dise ases.</w>
b reach
an alog
a ud
Govern ment</w>
---- ---+</w>
理 念
现实 世界
海 量
在线 学习
。总的来说 ，科技研究
、 教育
syn thetic</w>
stres s</w>
se ?</w>
necess ar
fund ing,</w>
cover ing</w>
correc t</w>
al li
， 了解
计算 能力
科 普
技术的发展 ，
stimul ate</w>
st ream</w>
scop e</w>
ob tain</w>
finan cing</w>
factor s,</w>
G reater</w>
Enter pri
道德 和
可以 提供更
加 剧
内 的
主 体
typ ical</w>
oc curr
micro -
health y</w>
dynam ics,</w>
diver si
ad h
Hum an</w>
5G 和物联网
营 销
数字化 转型
参 考
sym metry</w>
discus ses</w>
civi l</w>
au g
adju st
absor ption</w>
1 5</w>
( F
身 体
的 质量
人工智能 的发展
举 例
ve d,</w>
sto red</w>
industr y?</w>
impac t.</w>
enforce ment</w>
elder ly</w>
d ol
， 希望
降 解
wa ves,</w>
scal e.</w>
pati ents</w>
optim al</w>
op ening</w>
gu e</w>
assemb ly</w>
algorith ms,</w>
CO VID
高 速
illustr ate</w>
h ou
ec ra
defin e</w>
boo st</w>
J ames</w>
生物多样 性
是 推动
故 障
尝 试
wa y.</w>
w estern</w>
un til</w>
t ations</w>
spectr um</w>
sole ly</w>
ro tation</w>
meaning ful</w>
lab or</w>
f ar</w>
ent rop
cro p</w>
comb at</w>
an der
ab und
Off ice</w>
机器学习 和
成 长
spac e
region s.</w>
plan ts</w>
hund re
deman ds</w>
M ed
邮 件
研究和 开发
措施 。</w>
准确 地
了 新的
y ou
targ ets</w>
si ve
s chool
d one</w>
concer n</w>
com posed</w>
boo k,</w>
b one</w>
appe ar</w>
I ce</w>
Einste in</w>
设备 ，
生产 效率和
特定 的
斯 坦
也 使得
war f</w>
s s
ri gor
perio ds</w>
lu min
hy bri
bio log
atmospher e.</w>
" 的
re mark
interpre t</w>
i ous</w>
child ren
bir ds</w>
alig n
abili ties.</w>
K ong</w>
： 定期
， 增加
重大 影响
虚拟现实 技术可以
显著 的
战 争
学 家
了 一个
star t</w>
nit ro
ner .</w>
hear t</w>
du al</w>
decision-mak ing.</w>
com pres
architec ture</w>
H er
Ex peri
1 2</w>
科技创新 的
电 网
大大 提高
wor ds,</w>
har mon
habit at</w>
dou ble</w>
aster n</w>
S S
Bo th</w>
Arti ficial</w>
， 加强
面临 着
还 能
设计 师
国家 的
去中心 化
visu alization</w>
though t.</w>
stor age,</w>
reve als</w>
pas s</w>
initi ally</w>
ic e,</w>
f as
comparis on</w>
b ab
Networ k</w>
还 可以帮助我们
研究 中，
方式 。</w>
宇 航
。 例如
vent ure</w>
th ick
subsequ ent</w>
sp ar
ro po
i ds</w>
f light</w>
b en
战 场
应用 的
人 机
ric h
ph rase</w>
networ ks.</w>
inf ec
der s.</w>
cro w
aero space</w>
水 资源
样 本
。这 个
z ation.</w>
x i</w>
ti sh</w>
team 's</w>
tas ks,</w>
pre dat
nanotu bes</w>
exp ect</w>
ex ci
confi gur
Technolog y,</w>
R is
2 3
， 科学家们
） 、
基 地
ter min
posi tioning</w>
microscop e</w>
g over
free dom</w>
f la
en ces
dis cre
d ates</w>
com for
H aw
知识产权 保护
区 别
不可 篡改
trop ical</w>
resul ted</w>
popul ar</w>
ei ther</w>
degra d
clo ser</w>
ate s,</w>
Or gan
Gener al</w>
答案：< 科技在
的 科学
的 理论
导 体
和 量子
可能 对
卫 生
专 门
spac ecra
se d.</w>
provi ders</w>
popul ar
function ality</w>
f loo
Sur ve
Gre en
tri lli
region s,</w>
ph ones</w>
li hood</w>
in come</w>
form ation,</w>
ence "</w>
dise ases,</w>
cor rel
Zhe jiang</w>
I N
- up</w>
都 在
还 需要
构 成
未 知
数据 的安全
收 入
协 调
动力 学
举例 说明
soci e
se as
p in
mechanis ms,</w>
mechan ics,</w>
m use
bri dg
T e
Stu d
E d
科技 手段
的 可
二氧化 碳
under sco
sour ces.</w>
sol ute</w>
prote ins</w>
princi pl
out come</w>
herit age</w>
depend ent</w>
dec ay</w>
combin es</w>
charg ed</w>
Fi ve-
各 国
一 方面，
str ing</w>
sk y</w>
s u</w>
resul ts,</w>
paralle l</w>
lim its</w>
hol ds</w>
experi ences.</w>
ang ular</w>
Observ atory</w>
IB M
Environ mental</w>
，您 可以
宇宙 中的
力 发电
也 需要
v ing,</w>
tal ents,</w>
maxim um</w>
m es</w>
des ired</w>
cost- effective</w>
等 多个
数据 传输
supernov a</w>
sal es</w>
peo ple's</w>
mi su
materi al.</w>
ma ps</w>
hor iz
evol ve</w>
dep ending</w>
co t
bor der</w>
an .</w>
R F
La ke</w>
D ec
，这 使得
新 材料
发现 新的
prob ability</w>
eas y</w>
di ame
acces sibility</w>
Rob ert</w>
Mic ha
G en
Consi dering</w>
贸 易
建 模
和 政策
可以通过 多种方式
univers ity</w>
structu res.</w>
radio active</w>
organiz ational</w>
g old</w>
criteri a</w>
K o
D ef
， 中国
释 放
学 校
w id
o d
d ing:</w>
computer s,</w>
calcul ations</w>
Commun ic
请 讨论
融 资
waveleng th</w>
state ,</w>
inv en
fol low</w>
fin al</w>
data -driven</w>
Mo un
I R
Euro p
，以 防止
进 化
蛋白 质
科技 如何帮助
研发 投入
版 权
工具和 方法
如何 确保
大数据 的
和 理解
st ation</w>
s or
over si
methodo logy</w>
construc tion,</w>
ation s:</w>
ac qu
T it
M c
活 力
文 献
减少 了
代 码
repor t,</w>
per son</w>
mac ro
ke t</w>
de d,</w>
at a</w>
Y o
Sil icon</w>
P ho
简 单
比 较
有助于 提高
应用 。</w>
其 境
但 不
w all
visu alize</w>
st oc
qu o
policymak ers</w>
intui tive</w>
impro ves</w>
he mo
gen ome</w>
circul ation</w>
ap p</w>
acceler ated</w>
Secon dly,</w>
S up
必要 的
地球 的
国家 和
和 维护
和 改进
s es
p ene
molecul e</w>
mem bran
he mi
flexi b
fi ber</w>
d r
d ang
constra in
astr on
Micha el</w>
A C
装 置
的 目标
数据 。</w>
和 保护
临 其境
ur ne
u ds</w>
mar ks</w>
gain ed</w>
dis plac
cla im</w>
c in
al- level</w>
R adi
N at
MR D</w>
身 临其境
负 责
生物 信息学
在 农业
可持续发展 。</w>
以下几点 ：</w>
in quir
fam ily</w>
do main</w>
distan ces</w>
cost s.</w>
assum ptions</w>
activ ity.</w>
Stra te
Im pro
Af ter</w>
物联网 技术
在线 课程
区块链 的
一 致
vi a</w>
ver sion</w>
reconstruc t</w>
po st-
ow ner
neutrin o</w>
n ame</w>
ext ended</w>
do or</w>
distingu ish
compon ents,</w>
， 来
预 期
资 助
寿 命
争 议
public ation</w>
pa ir</w>
et ary</w>
eri al</w>
d re
confir m</w>
，从而 实现
等 领域的
科技研究 中
正 确
所 以
工具 ，如
公司 的
也 能
worl d-
m ici
ilit y.</w>
ed ul
di gi
d warf</w>
H y
随 地
解决 这些
被广泛 应用于
新兴 产业
成 员
但不 限于
terr or
sup pli
mitig ating</w>
it self
geo graphic</w>
consum ers</w>
compli ance</w>
J up
H ad
B ar
1 1</w>
表 达
引力 波
work sho
protec ted</w>
n e</w>
introduc ing</w>
gro w</w>
g ases</w>
forecast ing</w>
S ol
C u
C er
道 路
的 发现
医生 可以
做出 了
yuan ,</w>
vehic le</w>
pac e</w>
laun ch</w>
l ittle</w>
il ar
hundre ds</w>
W est</w>
解释 一下
涵 盖
欧 洲
教育和 培训
捕 获
mar ked</w>
high- performance</w>
direc tor</w>
aw are</w>
M ag
Hom o</w>
Co ur
，可以 实现
随时 随地
观 众
空气 质量
的 例子
微 观
功能 和
le "</w>
Z hang</w>
I G
D ,</w>
， 共同
表 现在
稳定 性
正在 研究
周 围
vulner abilities</w>
si d
ris ks.</w>
civili an</w>
cali br
ate d.</w>
are a,</w>
agg reg
LH C</w>
进 而
谷 歌
政策制定 者
推动 作用
很 多
威胁 。</w>
。总的来说，科技 与研究
recover y</w>
n ut
m 's</w>
lan ds</w>
im mediate</w>
de l
coordin ated</w>
con fin
ch am
U sing</w>
那 些
密码 学
strateg y,</w>
sa ving</w>
prioriti zing</w>
pic ture</w>
it y-
inter ference</w>
insi ght</w>
innovation -driven</w>
dis clo
circu it</w>
aven ues</w>
ap par
aliz ed,</w>
adop ting</w>
Th ings</w>
Priv acy</w>
5 00
,00 0
真实 的
有 趣
方面 取得了
数据 处理
。例如，通过 使用
v inc
procedu res</w>
pac k
other s.</w>
objec ts.</w>
micro bi
interac tions.</w>
S of
R el
O l
E ff
A le
6 .
， 其中
虚拟现实 技术，
沉浸式 的
强 密码
中扮演 着
专注 于
tu red</w>
si s,</w>
sector s,</w>
form ation.</w>
exp e
computer s.</w>
child ren</w>
C .</w>
科技 与
学 研
在 环保
可再生能源 的
变 暖
。这些 都是
wa y,</w>
ou ter</w>
eco system,</w>
discus sion</w>
d ense</w>
L ab
聚 焦
的 合作
减少对 化石燃料的依赖
中 子
v ec
under water</w>
to ur
ten n
research ers'</w>
perspec tives</w>
inclu ding:</w>
frame works</w>
engineer ing.</w>
difficul ties</w>
continu es</w>
ac e</w>
) ?</w>
，并 为
音 乐
摄 像
拍 摄
形 态
促 使
伦理 和
。 我
ris ks,</w>
extrac t</w>
applic ations?</w>
A str
钓 鱼
访问 控制
生物 医学
产 学研
sch edul
ques tion</w>
progra ms,</w>
ox id
evalu ating</w>
dec entr
ag o</w>
ab ly</w>
Soci ety</w>
， 加速
链 接
信息 和
代 表
。 研究人员
sequ ence</w>
pursu it</w>
other ,</w>
hemo glob
for ward</w>
eng age
attrac ted</w>
account ability</w>
" M
的 是
文 件
数据分析 和
工业 互联网
发现 了
准 备
sup port
protoco ls</w>
m ers</w>
induc ed</w>
ed it
attribu ted</w>
，并 提供
， 大大提高了
等 技术
改 造
年 代
在 太空
中提 到的
z ones</w>
z ero</w>
v ention</w>
p el
n ic
mag n
it ation</w>
im mun
discus sing</w>
discover y,</w>
cont ain</w>
b rought</w>
Tai w
，尤其 是
带来了 许多
已经 在
创造 新的
min ing</w>
mi d-
far -
experi ments,</w>
effici ent,</w>
dis k</w>
dis crimin
Afric a</w>
揭示 了
投资 者
利用 效率
事 业
writ ten</w>
organiz ed</w>
o logy</w>
l ar
in struc
heavi ly</w>
fic ations</w>
ey e</w>
comp ens
cam e</w>
an ese</w>
adop t</w>
R ec
L ear
+-------- -------+</w>
重 力
请列 举
期 间
在 不同
后 的
分 别
ture ?</w>
spectroscop y</w>
re stor
o v
marke ting</w>
log ic</w>
fami li
c ases</w>
an atom
ac ts</w>
S ha
M arti
Five- Year</w>
， 建立
深度学习 算法
洞 察
startu p</w>
ele ments,</w>
affor d
acquisi tion</w>
F ro
B us
透明 度和
和 需求
几 种
丢 失
sm ,</w>
pande mic
har m</w>
explo red</w>
electric ity</w>
bound ary</w>
权 限
有 一些
催 化
t z</w>
lin ked</w>
li bri
equ ations</w>
ent 's</w>
comp act</w>
ca se,</w>
beg in
acces sib
Tibet ans</w>
，例如， 通过
， 可能会
管理 系统
科研成果 的
独特 的
spectr al</w>
so me
self- reliance</w>
log ra
cour se</w>
camer as</w>
as :</w>
ad ver
ac cid
NS A's</w>
科技 产品
的问题 。</w>
是一个 重要的
性 别
各个 领域
全球 范围内
tor y</w>
the me</w>
t sun
spac e-
solu tions,</w>
repor ted</w>
ran king</w>
pus h</w>
planet s.</w>
mus c
gather ing</w>
ex em
advance ments.</w>
Con duc
7 .
自动化 和
有 用
市场 的
外 部
parame ters</w>
p ron
overse as</w>
like lihood</w>
indic ators</w>
f und</w>
emit ted</w>
e onto
doctor al</w>
developer s</w>
deep -
cont ent,</w>
b er,</w>
ap preci
Shand ong</w>
Can ad
9 .</w>
， 学生
问题 ，如
现代 化
混 合
晶 体
新 区
提供了 强大的
医疗 领域的
产生了深远 影响
s ).</w>
ri sing</w>
rea ding</w>
D .</w>
园 区
s ick
pro tons</w>
o res
li qu
fin ite</w>
feed back
credi t</w>
characteris tic</w>
balan ced</w>
Under standing</w>
C N
4 ,</w>
趋势 。</w>
精 细
的 科技研究
传统 计算机
主要体现在 以下几个方面：</w>
us ers.</w>
tim ing</w>
ter restrial</w>
survi ve</w>
structu red</w>
showc asing</w>
s uring</w>
ro w</w>
jo urne
de d.</w>
are a.</w>
B lock
30 0</w>
独 立
气 体的
架 构
军事 防御
作物 的
we igh
tissu e</w>
surro und
super massive</w>
se tu
s ent
oxy gen
ol e</w>
las ers</w>
高 水平
追 求
拥 堵
所 需
性和 可
反映 了
净 化
” ，
ul y</w>
standardi zation</w>
sear ching</w>
protec tion.</w>
pol ym
competitiven ess.</w>
阅 读
打 破
器 件
发 表
两 种
promi se</w>
pro per</w>
la id</w>
knowledg e.</w>
it ?</w>
id s,</w>
i te
b ers,</w>
ac tic</w>
ab solute</w>
G i
4 0</w>
是 非常重要的
书 籍
严格 的
、 交通
vulner able</w>
us age</w>
unusu al</w>
tan eous</w>
pul ses</w>
influ encing</w>
hist ori
fin ance,</w>
asp ect</w>
al ism</w>
F uture</w>
， 更
成功 地
不 确定
hi dden</w>
con ve
con dens
circu its</w>
cat astro
business es,</w>
We b</w>
Sun 's</w>
E U</w>
AS T
A ut
， 那么
类 似
审 计
合作 伙伴
依赖 于
。 比如
z z
tur n,</w>
qual ity.</w>
off ic
magne ti
featu res,</w>
discus sions</w>
dimen sions</w>
comp as
c lin
ar ray</w>
W ay</w>
Nat ural</w>
Found ation</w>
相 结合
的 提升
电 影
有利 于
智能 化的
成本 。</w>
应 急
产生 影响
z ero
quar ks</w>
prop ag
produc tion.</w>
milit ar
in her
f -
diagra m</w>
da y,</w>
En suring</w>
Cen tral</w>
角 度
可以 将
ul ate</w>
transport ation,</w>
pene tr
over coming</w>
k ine
ho li
duci ve</w>
con ducive</w>
centur y</w>
Sim ilar
雷 达
清 洗
模拟 和
引发 了
差 距
实 用
和增强现实 （AR
proble ms,</w>
prep are</w>
on gg
emo tional</w>
d less</w>
chain .</w>
bio divers
atom s,</w>
astero id</w>
ap h
a per
a "</w>
防 控
的影响 ？</w>
的 。</w>
年 的
之间的 关系
str ation</w>
so ,</w>
ou s,</w>
m y
fail ure</w>
exam pl
emp ir
Similar ly,</w>
S cot
Ric hard</w>
C ap
虚拟现实（VR） 和增强现实（AR
示 范
格 局
地 点
分 发
wat er.</w>
w er</w>
refl ected</w>
pul se</w>
equi libri
confir med</w>
b ig
ac com
， 满足
采取 相应的
线 性
窃 取
穿 戴
指 出
如何 改变
op ens</w>
on e.</w>
nat ur
mitig ation</w>
man ned</w>
lear ned</w>
j unc
es i
differ enti
center ed</w>
batter y</w>
S tar
，帮助 医生
领域 取得了
降低 了
病 虫害
新型 的
数据 收集
政 务
带来 新的
太阳 系
war m</w>
w ild
s ,"</w>
nut ri
me ant</w>
ke eping</w>
go als,</w>
experi ence,</w>
connec tivity</w>
ch oo
ac king</w>
* *</w>
的 有效
免 疫
tor n
remo ve</w>
mas s.</w>
mas s,</w>
lin e,</w>
dedic ation</w>
b erg
al ter</w>
T yp
Nan j
Cur r
还 在
软件 和
能够 更好地
方便 地
废弃 物
实 体
地 的
一个 重要
un it</w>
ti er</w>
system atic</w>
satis fac
rigor ous</w>
ment "</w>
fe el</w>
clo uds</w>
ab str
Imple ment</w>
F re
Compan ies</w>
进展 。</w>
密 度
定 律
地 面
tro n</w>
ordin ary</w>
l un
experti se,</w>
en z
dist urb
cover age</w>
con sen
ang 's</w>
an tenn
Q ing
Jiang su</w>
( B
成 熟
情 感
宇航 员
vo ice</w>
ve get
vacu um</w>
upgra de</w>
test ing,</w>
lo st</w>
interne t,</w>
ici ous</w>
health .</w>
expres sion</w>
cru ci
bacter ia</w>
Congres s</w>
， 然后
频 率
这些 技术
解决 环境问题
解决 了
虚拟 世界
考虑 到
缺 乏
对 教育
和 经济
wor d
too k</w>
tec ton
tack le</w>
r o</w>
networ k,</w>
me et
im ply</w>
ex ac
ar ch
adequ ate</w>
P )</w>
Intellig ence</w>
C L
202 1
20 19
-1 9</w>
突破 性
挑战 。
对 接
传统 能源
。此外， 人工智能
un its</w>
re ment</w>
r eno
pul s
pro be</w>
phenomen a.</w>
measure s.</w>
k "</w>
inter fer
desig ns</w>
auth ori
ap ter</w>
ac ial</w>
I '
Guangd ong</w>
A L
高质量 的
科学 技术
深 刻
是什么 ？
克 隆
。再次 ，
standar ds.</w>
skill s,</w>
satelli tes</w>
ra inf
os ity</w>
man ner.</w>
k en</w>
incid ent</w>
ho sp
collabor ation.</w>
I denti
Afric an</w>
随 机
证 据
类型 的
科学 院
科 创
有 的
干 细胞
transpar ency,</w>
planet .</w>
op tics</w>
man 's</w>
l 's</w>
inter oper
institu tional</w>
il ,</w>
bin ary</w>
agricul ture,</w>
( IoT
都 可以
挑战 ？</w>
成功 案例
thri ve</w>
cho ice</w>
acous tic</w>
Th om
La w</w>
，这 样
阻 止
的 设计
生物 质
比 例
中的 角色
st ory</w>
recru it
pre -
insp ire</w>
individu als,</w>
go ing</w>
classi fication</w>
al ity.</w>
G a
A war
A rea
A ma
A li
( H
良 好
合 法
偏 远
一 旦
trans ac
remark able</w>
or ders</w>
for ce,</w>
cultiv ate</w>
attrac tive</w>
aircra ft</w>
X u
R O
，减少 对
纳米 材料
技术 将
影响 了
密 钥
。此外 ，科技研究
x ,</w>
stor m</w>
iz ation,</w>
insi gh
h un
flu ores
ce 's</w>
al ist</w>
So cial</w>
N IS
Dar win
Com mission</w>
Astr onom
超 导
现代 科技
数据 、
也 带来了
、 农业
w ant</w>
v or
the -
t ance</w>
regar dless</w>
produc tive</w>
explo res</w>
employe e</w>
clust ers,</w>
cent ric</w>
aliz ation.</w>
P y
E m
，并 在
遗传 疾病
表 示
攻击 者
存储 在
准 则
企业 在
w il
undersco res</w>
scal ing</w>
repor ting</w>
phy si
min u
gr ant</w>
fore st</w>
fluctu ations</w>
evolution ?</w>
every day</w>
_ _
S ky</w>
C S
B I
请 详细
分析 、
信息 ，
人 为
societ y,</w>
sive ly</w>
ru s</w>
propor tion</w>
num bers</w>
near -
microbi al</w>
ho t
hemoglob in</w>
gap s</w>
ex er
encour aged</w>
d ness</w>
bloc k</w>
输 入
研究 中的应用
教学 方法
支持 和
共享 和
ta ins</w>
ship s,</w>
ref rac
other .</w>
new ly</w>
log ists</w>
go als.</w>
gam ma
bo ar
an no
COVID -19</w>
风险 。</w>
集中 在
自 强
经 过
救 援
互 通
wear able</w>
tempor ary</w>
state .</w>
public .</w>
met ad
in ner</w>
communic ations,</w>
cell s.</w>
P al
Ne ander
Huawe i</w>
5 -
，而 且
近年 来，
超 级
磁 场
研究 领域
生物 体的
在科技研究 中
。通过 分析
work s,</w>
th is,</w>
resili ence</w>
modi fied</w>
milest one</w>
eco systems,</w>
earthquak es</w>
cir cum
ci ties,</w>
Sta tes,</w>
M use
Ge or
谈 谈
的 最新
时 期
应对 气候变化
家 中
如何 提高
yo ung
them ,</w>
respon ses</w>
repres ented</w>
part ners</w>
effici ently.</w>
awar ded</w>
alig ning</w>
ag ency</w>
远程 教育
简 化
条件 下
事 故
u si
situ ation</w>
pro min
ing ing</w>
g er</w>
exem pli
empir ical</w>
br ings</w>
ad dition</w>
( L
方面 有哪些
很 大
奠 定
ste p
star ting</w>
sp or
secon d
re d,</w>
po ol</w>
orb ital</w>
no te</w>
inde x</w>
consump tion,</w>
W il
I C</w>
： 首先
时 的
st abili
s an
opportuni ties.</w>
mar king</w>
lin es,</w>
ex tra
et s,</w>
ch an
W ar
Un like</w>
U N
Micro soft</w>
的研究 方向
渠 道
新的 科技
成 分
出 行
作为 一
w is
shor t
n ation's</w>
less ons</w>
co ding</w>
chann el
argu ments</w>
( T
竞争力 。</w>
攻 关
也 推动了
utili zation</w>
scatter ing</w>
pione ering</w>
person nel
ol ecul
methodo log
har m
educ ation.</w>
deep ening</w>
collap se</w>
2 5</w>
红 外
的 效果
智能 交通
新 闻
控制 和
指 挥
tor .</w>
ol der</w>
molecul es.</w>
model .</w>
marke ts</w>
experi ences,</w>
constan tly</w>
be low</w>
align ment</w>
Hu bble</w>
9 ,</w>
202 1,</w>
隐私 权
自然 灾害
深度 融合
主 题
ri d
man tle</w>
di um</w>
ator ,</w>
Ris k</w>
NAS A
Fur ther</w>
Con tin
： 科技研究
自 立
生产效率 ，降低
提供了 更
开发 者
加密 算法
公众 的
。例如， 使用
un known</w>
st ations</w>
pre served</w>
per si
li th
li st
center s,</w>
c ity,</w>
al ?</w>
Y es,</w>
Spac e
这 项
被 认为
答案： 在
服务 的
有许多 应用
拓 展
层 面
可以 进行
冲 突
reli es</w>
milest ones</w>
in jur
im possible</w>
for cing</w>
fic i
environ mentally</w>
de la
b and
Pub lic</w>
Me ta
： 确保
，尤其 是在
， 进而
科技 领域的
的 伦理问题
天文学 家
。 当
world wide
work force</w>
train ing,</w>
spac es</w>
repor ts</w>
qu est</w>
n .</w>
fo re,</w>
effec ts.</w>
design .</w>
dec ade
b as
aero sol
O ther</w>
C al
，使 我们能够
， 他
科研 工作
的 复杂
带来 更多的
将 其
医疗 领域
利用 科技
产业 升级
windo w</w>
succes s.</w>
s le
reas on</w>
pos s
pas sing</w>
mo on</w>
lo ad
for d</w>
exam ine</w>
contro l.</w>
civili z
b lin
ator s.</w>
Wi -
T a
Ke pl
Euro pe</w>
连 续
研 讨
生产 力
人工智能和 大数据
主要体现在 以下几个方面
vol un
supernova e</w>
stream line</w>
program ming</w>
microscop y</w>
m es
inva sive</w>
inf er
in e,</w>
follow ed</w>
en rich
cooper ation,</w>
broad band</w>
benef its,</w>
an t
al most</w>
agre ement</w>
I I</w>
C limate</w>
资 本
负 担
艺术 作品
积极 的
寻 求
商业 模式
交 换
。例如， 在
w ned</w>
tre ating</w>
te x</w>
su s
recogni tion,</w>
i ding</w>
ex posed</w>
awar d</w>
H T
A M
5 )</w>
集 群
自立 自强
生 理
城市 的
专 精
。首先，科技 创新
to m</w>
separ ation</w>
re ?</w>
pollu tan
enhance ment</w>
bri an</w>
